[UNK]
[PAD]
[SEP]
[MASK]
[CLS]
!
"
#
$
%
&
'
(
)
*
+
,
-
.
/
0
1
2
3
4
5
6
7
8
9
:
;
<
=
>
?
@
A
B
C
D
E
F
G
H
I
J
K
L
M
N
O
P
Q
R
S
T
U
V
W
X
Y
Z
[
\
]
_
`
a
b
c
d
e
f
g
h
i
j
k
l
m
n
o
p
q
r
s
t
u
v
w
x
y
z
{
|
}
~
§
©
«
¬
®
°
²
´
·
¹
»
¼
¾
À
Á
Â
Ä
É
Ê
Ì
Í
Ð
Ó
Õ
Ö
×
Ü
ß
à
á
ä
å
æ
ç
è
é
ê
ë
ì
í
î
ï
ð
ñ
ò
ó
õ
ö
ú
û
ü
ý
þ
ÿ
ā
ă
ē
ī
ļ
Ő
ő
Œ
œ
ş
Š
š
Ű
ű
Ÿ
ż
ž
ǃ
ʹ
ː
́
̈
Ё
Ѓ
І
Љ
Њ
Ќ
Џ
А
Б
В
Г
Д
Е
Ж
З
И
Й
К
Л
М
Н
О
П
Р
С
Т
У
Ф
Х
Ц
Ч
Ш
Щ
Ъ
Ы
Ь
Э
Ю
Я
а
б
в
г
д
е
ж
з
и
й
к
л
м
н
о
п
р
с
т
у
ф
х
ц
ч
ш
щ
ъ
ы
ь
э
ю
я
ѐ
ё
ѓ
є
і
ї
љ
њ
ћ
ќ
ў
џ
ѣ
җ
Қ
ң
ҥ
ҫ
ү
Ӓ
ӓ
ӗ
ә
Ӝ
ӝ
Ӟ
ӟ
Ӥ
ӥ
Ӧ
ӧ
ө
ӱ
Ӵ
ӵ
ӹ
ԍ
‒
–
—
‘
’
“
”
„
†
•
…
′
″
›
₵
№
™
→
−
≈
≥
★
♦
♬
即
是
空
色
￼
😃
😊
😍
##а
##з
##о
##п
##р
##в
##д
##е
##ж
##и
##с
##ё
##н
##т
##к
##л
##ы
##э
##ь
##e
##m
##b
##r
##a
##n
##м
##ӥ
##х
##у
##ш
##ъ
##я
##й
##г
##ц
##б
##Е
##Н
##Г
##Р
##ӟ
##ӧ
##У
##Ш
##А
##С
##Ь
##К
##О
##6
##9
##ч
##ю
##ф
##Л
##7
##щ
##Ц
##ӵ
##k
##u
##d
##И
##М
##В
##i
##v
##p
##o
##l
##П
##З
##0
##2
##ž
##c
##t
##h
##њ
##Т
##5
##1
##s
##g
##ӝ
##y
##z
##Ъ
##Ё
##Ы
##Ю
##P
##Ӧ
##Д
##3
##í
##ћ
##4
##T
##O
##M
##Й
##ў
##є
##V
##N
##W
##L
##X
##I
##w
##Э
##ä
##¬
##E
##R
##f
##Я
##Б
##8
##Ч
##x
##џ
##H
##́
##S
##œ
##Ф
##Ж
##F
##ќ
##Х
##Ӥ
##A
##ї
##C
##K
##j
##ö
##−
##á
##Ü
##D
##ī
##G
##U
##ó
##é
##Ӟ
##ş
##ő
##♬
##É
##Q
##Ű
##Z
##q
##ә
##B
##×
##Y
##æ
##Щ
##₵
##ú
##à
##ê
##î
##ë
##ÿ
##ð
##û
##ñ
##ü
##і
##Ÿ
##®
##ӓ
##ò
##Ӵ
##ì
##ѐ
##ă
##ӹ
##ө
##J
##õ
##Ӝ
##š
##љ
##№
##ű
##Ќ
##★
##å
##→
##°
##ҫ
##ҥ
##™
##😃
##Á
##ż
##ß
##ï
##è
##ң
##Ä
##ǃ
##І
##ӱ
##ā
##Ö
##̈
##ː
##ү
##ʹ
##Ó
##þ
##😍
##😊
##ý
##²
##ѓ
##ē
##ļ
##Ӓ
##ѣ
##ӗ
##сь
##ын
##он
##ёс
##ал
##ыл
##ъёс
##ос
##рт
##ськ
но
##лэ
##ан
##ер
##ысь
##ыр
##ен
##ин
##тэ
##тӥ
##ор
##ез
##зы
##лы
ку
##ъя
##ем
##ты
##ск
##лэн
##ат
##зь
##ыны
##урт
##ар
##ет
со
##аз
##ам
##ес
##из
##ад
##ун
##ур
##ыс
##ов
##ол
##дм
уж
##мы
##ык
##ст
ар
##ыд
лу
##от
шу
##ак
##од
##ыт
##на
##оз
##ль
вал
кыл
##дмурт
пу
##ка
##иськ
##ед
##тэм
##рос
##зэ
##ит
##ас
##ыш
##ек
ке
##ом
##эм
Со
##лэсь
ик
##ош
##ям
выл
##сэ
ту
##иос
##сьёс
тӥ
##ай
##ыз
##аськ
##но
##эз
ул
ин
##ыса
##ань
##ли
ни
##ӧл
##ож
##эн
ву
сю
та
##пу
##ась
##ым
ог
##тон
##ик
##уд
Удмурт
вер
##ро
уг
##ия
##зьы
##тӥськ
##ъяськ
##ил
##ив
ад
##гес
##ев
##чи
##ис
му
##га
##дӥ
ся
##ъёсты
##ӵе
##ра
##тӥз
##ере
##изы
вань
##рысь
дыш
##алык
##эсь
##ло
ныл
дыр
Та
пыр
по
##ъёсын
ёрос
##ртч
##тыны
##ист
удмурт
##ку
##са
##то
##ды
##етӥ
##инэ
пон
##во
тыр
туж
сюр
кар
бы
быд
##оно
ортч
##ивал
##ме
трос
соос
гинэ
##ина
гурт
##ӥз
пӧ
##ент
##озь
##тск
##ыӵе
##ён
##си
инты
понна
юрт
бась
##ма
##яськ
сё
##ой
##онъёс
##лык
сярысь
вор
на
кулэ
кот
##сы
##ян
##ись
калык
пум
##эс
мал
тод
##аш
##уж
##ци
##озы
ӧв
##ир
##ид
##аны
адям
##ич
кон
нун
ӧвӧл
азь
##им
##еч
##ысьты
##тӥзы
дышет
##ке
ас
то
уч
##емын
пот
кивал
##ья
##кет
мон
##тэмын
Удмурти
про
##ог
##лек
Нош
##ртэм
пук
##ӟым
##тӥсь
##исьёс
лэсь
20
Иж
нунал
##ей
Но
##яз
лю
##дӥг
уд
дун
арын
##ылк
##кол
##по
пал
выль
малп
##ова
лыд
##ни
ним
##ель
улон
##ылӥ
##адӟым
нош
ӧз
##азы
кутск
Рос
мед
##тэк
##ъёсы
##ысен
##адь
ут
##инал
##ел
##тэз
##пум
пр
##ство
##анд
##ыж
нылп
##ьк
гож
##ав
Ку
##ъёслэн
##рад
мын
##зэс
##ап
##ной
##еб
##ъян
##ий
##ок
##ъёсыз
возь
##гит
шуыса
##азе
##дон
##оры
кы
от
ась
##рам
эш
##ус
рад
##еш
мукет
##тыса
##кола
вет
бадӟым
##ник
##исько
адӟ
бер
дышетск
Озьы
вис
одӥг
кыр
##ало
пӧл
##ъёслы
бере
##ня
##ект
кур
мил
кык
луоз
Росси
##ъёссэ
кадь
ӵош
сюрс
ком
##лекс
бор
ук
пи
##ест
быдэс
дас
тодм
##гат
##ылкыд
школа
йыл
пинал
##чы
пе
##бере
##енеш
##гор
ныр
##амы
##пал
ёросысь
##арт
шед
##аса
##ара
Алекс
адями
аз
##выл
бу
##акл
пус
син
##ура
егит
сям
мылкыд
##ылы
##ерт
##ъем
ман
19
сое
кыш
##ул
ӟеч
буд
##инист
быга
ум
удыс
##до
##ано
пол
##аль
##ие
быр
кырӟ
##льт
##най
##ӥськ
##ля
##ьӧ
##не
кун
чакл
тун
##сез
##лан
луэ
учк
##мыз
##ысьтыз
выж
##ькуд
манет
озьы
пыриськ
##ри
##льк
##мон
##бур
##атск
Мон
##маськ
ини
ст
##лькун
Соос
кивалтӥ
пӧртэм
огазе
##алэн
усь
вош
##лям
##аер
уз
##бли
вак
##аг
сюрес
##рез
быгат
вераськ
си
##есь
Кыл
##ум
тырш
пы
конь
##кар
##ала
йыр
##порт
мурт
##ика
ӧй
ӝу
кл
ва
кӧ
##ва
сьӧ
##емья
##ебер
ми
##нэ
али
кор
##скер
##алы
##тэт
Ми
##00
туп
##атын
##лен
##ук
дор
##уг
те
улӥ
##тор
ужа
##ытэ
ужрад
##ъям
сек
##ут
оск
##ыль
адямиос
##да
Александ
огазеяськ
##лэм
##аос
эскер
##ошк
201
##ег
гор
нылпиос
Ин
##мес
Александр
лык
эк
##сё
Ан
шаер
мар
семья
куз
##сп
##та
##ани
шедь
##онэз
луиз
##оже
сыӵе
##каськ
сюл
##уч
сямен
##янь
##инь
воз
Мар
##ысетӥ
Вал
##тӥсько
минист
##онъя
муз
##аб
юн
кин
##дыр
##амын
сяна
##лаз
##уз
коньдон
##онэ
ма
потэ
Соин
борд
##тоно
##ылӥз
##чиос
От
милли
Ту
кылд
пай
Вань
ви
пичи
##бр
##шо
##мо
шор
асьме
ӵоже
шӧ
ветл
нылпи
##лад
быдэ
куд
кошк
кыӵе
##каос
##ков
##публи
дышетӥ
##еспубли
##ской
##дӥськ
##анъёс
яр
котькуд
##дур
умой
йылпум
проц
вылэ
анай
##иль
Ог
кель
##мат
улос
##асько
##ылэн
##ыло
##вор
тужгес
дунне
элькун
вылын
##ылӥзы
##ыным
куж
спорт
Россиысь
Удмуртиысь
пӧлын
чебер
##ост
##яй
Кот
кенеш
##эр
кыск
азин
шум
юг
котыр
ном
сӥз
шуд
Уж
ужпум
##дск
лыдӟ
##ся
##уб
кылды
##рав
##ъяськон
##ырт
сур
Кун
##сык
##ысьтымы
Мын
культ
##еныз
дыръя
выр
пумит
люкаськ
пала
Ник
город
##осты
##сэс
вылэм
Ар
кол
пӧлысь
ваз
огазеяськон
яра
арес
секыт
яке
вӧ
##ева
люк
тодмо
##нал
##анов
гер
##ашк
##кыт
вуз
##шк
кызьы
##ӥсь
##ъёссэс
сп
##ция
ки
клас
##лэз
ав
вай
туэ
##оды
учыр
отын
йӧ
##об
чер
газ
иво
Влад
асьсэ
будэ
пӧр
##ъёслэсь
##еп
сиён
##ъёсъя
таӵе
возьма
нырысетӥ
##ӧро
соку
##ъёсысь
##эк
##кур
##ъяны
пумиськ
##ъёссы
Ижысь
10
Пи
тунсык
Мынам
##осын
кап
коть
Кенеш
шуэ
доры
Али
##оль
##ран
ам
##емез
нырысь
##озяй
шун
200
##тоз
##асянь
ну
Ижкар
кем
пусй
##пр
##ча
##ял
##тай
##ысал
##бер
кӧня
кни
##сто
ваньмыз
ворм
сӥ
арлы
##тӥсьёс
Гурт
##озяйство
кузь
эм
миллион
верам
Ныр
Туж
Ал
ужаны
тон
##имир
ужасьёс
кивалтӥсез
выжы
улэ
сюлмаськ
луы
эшшо
ай
вут
ласянь
кылбур
##онлык
##пук
газет
югдур
##ышно
##ыныз
сьӧр
Владимир
кылем
##еспублика
##дэ
куинь
ӟуч
вит
Кы
##оск
пыд
##урнал
культура
##ип
##лэзь
дан
пиос
хозяйство
пусъ
де
борды
##сын
##пот
кыд
вож
##нер
##аж
##етр
ню
соин
час
книга
##грам
##че
##езлы
Тат
вазиськ
цент
Пичи
##кыл
##жыт
##ерат
вераз
татын
##еж
##кин
кусп
##уп
##сярысь
##алэсь
##тӥське
##гур
Тун
##ӧр
Ив
ортчиз
##чиз
ужась
вакытэ
иворт
кыт
##тэн
солэн
##резь
##пи
уго
Ма
таз
музъем
Никол
визь
##естивал
##ович
шуг
туннэ
Глаз
##арк
##тыз
тур
тросгес
15
Выль
##мен
пыӵ
##04
##езь
##ллям
ӵошатск
ож
оло
кырӟан
##орт
##ылэ
тол
герӟ
вордск
арт
##мар
Вор
Туэ
аръёсы
##вет
нимысьтыз
солы
би
Гер
##дӥз
##ерство
журнал
Моск
шоры
Кон
u04
##евич
##олог
програм
ужан
##тер
Удмуртие
сад
##ӧроез
Уг
##лект
ӧт
валэк
мыным
##иськом
##аез
соосты
##атель
вылӥ
##ъяське
##илэн
шуиз
ӧжыт
малпан
##ентэз
##лед
пудо
процент
Му
##тозы
Кызьы
улӥсьёс
дыре
кивалтӥсьёс
##атон
министерство
##осыз
кивалтӥсь
луэм
ортчыт
пумысен
сӥзем
##иез
##ном
##иысь
##ымон
зэм
##или
шул
Туннэ
##резьгур
Куз
куно
##истъёс
вера
тех
##кышно
Сер
воргор
пиналъёс
##циос
##оп
Москва
Сю
возьмат
сюлэм
палэн
атай
од
##азь
##ъяз
амал
нылкышно
Азь
усто
Вас
вуэм
##лэзе
##лань
маш
утён
тунсыко
Мих
ур
луыны
##онын
ан
Вер
вам
мат
##еся
кылын
ёз
Дэ
малы
толэзь
лит
##ӥзы
Удмуртиын
корка
кр
валтӥсь
Ныл
суред
азьын
##ъяло
##ант
Одӥг
куспын
отчы
##сия
##тат
##атр
##ылэсь
##иын
##тэмез
конкур
##тонъя
тырмы
##инг
##кал
гуртын
капчи
##аст
##едер
программа
Бер
##ызы
##итет
12
дано
фестивал
Лю
Ул
##итель
азьло
##тӥсез
Отын
нимо
монэ
об
##иське
черк
##шур
##авод
##номурт
потӥз
кужым
котьку
##ӥсько
Зэм
Кин
ёросын
##рак
лул
##ытэк
##путат
##ици
##оос
гур
бызь
##рес
Инмар
##онер
киз
##альной
##еле
Кр
Ст
чылк
##икая
ӵем
крезьгур
сл
мынам
вӧл
ужам
##ъямын
басьтыны
пред
##амб
Трос
##овна
##лыко
берт
Кылем
зол
##еме
##миз
берык
##кт
кыс
##ьы
##ымтэ
##лам
вылысь
##гурт
##имы
30
юрттэт
ӵек
##нив
##ерс
валан
##ӧд
класс
Кык
##азэ
шур
кема
мун
министр
##ъясько
##цен
бордын
Глазов
Соку
##ех
##ая
уно
йӧл
Котькуд
##уш
машина
##тэтск
Серг
##наш
##евна
одно
тупат
ачиз
Мож
литерат
ужъёс
##хоз
кутскиз
Элькун
##ать
Кылсярысь
гуртысь
Тод
##алэ
Собере
##иллям
Тус
11
##ият
уксё
Калык
азьвыл
Кор
##ган
##ае
##мурт
малпаськ
луозы
герӟаськ
мак
уй
вуиз
туала
##иськон
ват
сэр
Дыш
##рон
##тыр
кышномурт
##ябр
тодматск
През
##ужем
##ниверс
##ский
луонлык
команд
Презид
кариськ
кылэз
##тӥськиз
вакыт
##аля
быръ
сак
Куд
ля
Туспук
шумпот
18
##лом
Быд
егитъёс
зак
##дж
Ас
центр
Пур
##прият
Тани
##яны
##стор
удысын
##ёт
вамыш
Эш
номер
##гра
шара
##ерм
Алнаш
депутат
##ъязы
##ынызы
бур
Вол
тросэз
нь
ус
шулдыр
карт
утч
##ино
дур
##ылэм
Сое
шумпо
кельш
##язы
интые
кылдыт
##лыс
дышетӥсь
арня
кыкетӥ
вун
ивор
Ад
тус
Тӥ
##дун
Ась
##ӧртэм
тазалык
##лем
##тым
студ
куара
милем
комп
##ослы
универс
ужез
Табере
пис
дасяськ
##церт
##стит
луыса
##дминист
ӝог
##олов
пар
Егит
тат
ваньзэ
Нырысь
##ёв
шутэтск
##др
##ужб
тыл
Вот
чакламын
Удмуртилэн
табере
ортчы
##рий
Малы
##апак
тодон
##еци
лэз
скал
##ека
аг
ялан
##юдж
Таӵе
##ах
Можга
гр
Удмуртия
Гор
пуш
25
админист
ӧд
##лыкез
фин
предприят
ортчем
тодэ
ӝыны
школаын
пырт
Сыӵе
пусйиз
##ослэн
театр
##смен
дырысен
##тӥськон
республика
##кем
куар
дышетӥсьёс
шуныт
##ач
азьлань
##самб
##ектор
##ӧк
кузпал
##азд
федер
полит
куш
##езъя
##тыс
##ӥсьёс
##ард
кузё
чид
Солэн
Уго
##алл
тӧроез
луо
огез
узыр
вить
бич
##кын
Кыӵе
##их
##асьёс
аре
##равлен
##иц
интыос
вордӥськ
фестиваль
Ев
##тэс
##ъяськиз
кв
ыш
вераны
##онэн
##ъяса
##пол
Татын
##аци
##ъясь
шуо
администра
ак
Бал
Бадӟым
песя
ош
##ымы
##ашкала
истор
проект
Елен
завод
бӧр
Сергей
##аздник
шудон
быгато
Николай
клуб
##ое
##алась
улыны
спортсмен
пия
Елена
поты
Пурга
ян
бюдж
аръёс
номыр
сер
##огурт
нуналлы
##етэз
##ата
##тӥськом
##пус
##ъяськыны
дуг
юан
концерт
вераса
ради
угор
##ыку
Мал
служб
улӥсь
##амен
##мын
быгатэ
из
воргорон
собере
ансамб
воштӥсез
14
##ециал
калыкез
Пр
уждун
Гал
кос
##есс
солэсь
эн
##иг
##аур
ёзэ
уже
инв
университет
##ны
улосвыл
дышетскон
азинск
соослы
ӝыт
17
меда
иськ
вунэ
юнма
Алексей
ортчоз
##мыш
гаж
пун
##мем
Кӧ
интыяськ
сцен
##тӥм
Шун
##енызы
##ников
13
##кетыз
ярат
су
вордскем
##дэм
Оль
##ыг
##шоры
##мыт
ӵук
урам
гужем
Тол
##иров
нылаш
##ко
##сып
##атор
уп
##ение
литература
медаз
Ольга
груп
ятыр
##амон
котьк
Ву
##сэз
Андр
Россиын
берло
черкогурт
##па
##онлы
специал
##лектив
вок
пере
нуналэ
верано
пос
кужмо
Мил
##иче
##лов
дорын
##тӥллям
##ямы
##чим
Мак
##иен
вуоно
кусып
##иципал
##наз
16
##ёно
милям
##том
студент
##зылы
огъя
висён
федерал
нок
##езлэн
##ылыны
процентэз
##ира
ужаз
утял
ужзэ
нуналъёсы
Кар
Над
##ыос
##ӧз
потэм
Россия
##улл
конкурс
##ъет
лэсьтыны
##лав
100
Яр
выллем
пияш
##мылэн
бусы
##ят
дышетскисьёс
урод
##ника
шаерысьтымы
Берло
Иван
пусъемын
##ртчи
##ады
валче
##ланяз
кузьым
нюр
##тӥмы
дыше
нырысьсэ
талэсь
вожвыл
мугор
u043
сул
праздник
удмуртъёс
##скын
во
##ъясьёс
зар
кутскизы
асп
чылкыт
Дэри
бак
тау
199
Отчы
сьӧры
##емзы
##аку
##инетӥ
сокем
ред
чаклам
##яд
Сара
##блиот
лэн
##дор
парт
Валент
управлен
##ще
шаерамы
аслаз
бырй
##онд
пӧсь
куас
##спо
##аил
##иосты
ок
ужало
тодос
##аф
##оном
Сарапу
интыын
дӥсь
до
синмаськ
Республика
кузя
муниципал
##аркан
##роб
коллектив
сай
Петр
нимаз
пен
##алоз
Озьыен
##ьяна
колхоз
бюджет
Татьяна
кышно
ватс
##ниц
куронъёс
паймы
пушк
матысь
Свет
##омы
тулыс
ата
Сем
прос
Малп
адӟем
вашкала
дэм
быгатозы
Россилэн
нау
Асьме
нокин
##енер
Шаркан
Василь
##аськыт
##лэс
Михаил
саклык
дась
##ытск
##рок
ап
Ижын
##ической
Волков
Дышет
ньыль
огшоры
##иськод
администраци
Тужгес
##оф
тӥлед
чот
сяськ
арбер
##ылӥськ
тэ
кылз
Иванов
50
луысал
##мит
##гож
ортчыса
##ки
##ительство
кышкыт
ноку
соослэн
быдэст
ортчи
лыдпус
лэ
##рамм
##ысьтызы
Нырысетӥ
Сарапул
радио
сӥзь
##тӥськы
татчы
воксё
пыт
Пинал
огазеяськонлэн
##ектар
тани
##иб
аресъем
музей
журналист
##енной
ужрадъёс
ӵыж
дуно
##аын
##ество
##ец
Прав
библиот
##ып
аслэсь
мукетыз
одӥгез
тр
Ваньмыз
##алозы
##раф
Ижкарысь
улонэ
ансамбль
дӥ
Мукет
гектар
##емъёс
вӧз
возьм
лэс
##иосын
люке
##овлэн
##ямын
пӧлы
##кум
##тонъёс
сёт
басьтӥз
Дмит
лэся
Кенешлэн
чур
мин
##ательёс
##иськыны
улсын
паськыт
атайёс
люкет
дышетон
угось
##иктор
##ёз
пайда
уло
келя
пыриськизы
##се
Шу
кил
##ген
##алля
Анай
луизы
##ерен
сётӥз
нылъёс
инстит
ана
Галина
номеро
процентлы
##дэс
маке
редак
арысен
пӧрмы
##гыш
карыны
сцена
Ижкарын
Нат
Ком
##мысь
Герд
комис
сётон
кал
##ву
##гер
лек
кытын
йылпумъян
Солов
зэмос
Надеж
культурая
мур
техника
кись
##со
22
##изэ
поч
##ъёсмы
Кӧня
поттон
даур
Правительство
сэ
сётыны
##ели
##ман
##атыса
Никола
Надежда
##онъёсты
берытск
кварт
Андрей
аспӧртэм
##иф
Соловь
Кол
сьӧрын
2017
ор
пор
кож
Балез
##исьёсты
##емен
малпасько
Виктор
##тӥськыны
шӧдӥськ
лулч
кылдӥз
Адям
##терн
##тысал
Кыт
рос
##мылы
##шор
адӟыт
40
уль
прем
##еск
Ужрад
кылдэм
##ияя
##гар
##ёр
##иськомы
быръён
мерт
##еев
Балезино
##лище
пер
тӥр
басьтэм
Оло
инку
лыдзы
##ъёсаз
##еспублик
ко
ветер
гуртэ
##атыны
##аське
Угось
##емзэ
дышетскыны
##ӧй
Ав
ӝӧк
веран
артист
кыдо
быгатоз
вазь
миллиард
##атл
##исьёслы
##толэзе
выльысь
шудонъёс
Президент
турын
мынэ
кылъёс
Ёрос
аслы
##над
пайм
##ъю
янгыш
##рик
верамъя
##аен
улэм
##чилище
Крас
##фон
##бес
оп
дася
лыктэм
тодӥськ
мыло
Ӟеч
##гыр
шонер
тазьы
кылдытэт
##тӥськоз
арзэ
##изм
Вит
Светлан
куинетӥ
##кай
Школа
мукетъёсыз
сётэмын
шат
Шаер
##вед
Семён
мад
калыклы
##ылӥсь
Ук
##ност
кошкиз
##ябрь
Бел
отысь
##овет
нянь
тупа
дир
ысь
##ация
Пер
##агаз
Про
твор
утёнъя
Светлана
Кал
##оя
Бор
пель
u044
рай
##иал
##ьыны
ӝож
лэсьтэм
эшъёс
дэр
##иськы
сётӥзы
Михай
ӧнер
##ъяськоз
ляб
Эгра
боль
кытчы
##лян
Ген
Вотка
##ӧрысь
вылаз
пед
##дыны
таиз
Кур
дырт
##оч
##акульт
##стр
##еберет
герӟаськемын
улы
##аляса
асьмеос
Пав
ассэ
Валер
##ком
вуж
Дэбес
горд
##сен
##ӧдьы
##горь
вуэ
шук
кунгож
шуоно
быгаты
##ытэз
Гри
печ
факульт
килог
Мед
суд
##етэ
##анова
кут
Валентина
##сылы
##мыр
##тонлы
кылъя
автор
ез
##кат
ачим
сам
##сяськ
юртын
проф
арм
##адем
Анат
Шуд
Улон
Кам
Эк
ӧм
визьмо
туспук
Шум
Уд
Каз
бакча
##езд
быгатонлык
21
югдурез
##дӥзы
Дун
школаысь
вуизы
Нылп
Тӧроез
азьланяз
То
ым
килограмм
##тас
##онъёсын
Пет
ӝутск
сётэ
политикая
директор
##сэн
##авож
элект
трак
##ртэмын
ӵошатыса
Дан
кезь
огазеяськонъёс
жинг
##тоб
кулэс
пуктыны
##ескыт
##лим
буй
дасян
быдӟ
##стер
ал
азьпал
Киз
ужбер
йылол
Лен
##ойна
ваньзы
удысъя
вераськон
Ува
Тон
кылиз
ӧр
Соловьёв
эконом
Кем
тел
курад
лэсьтэмын
##чик
##кумент
Чер
Як
##ске
##скалык
пок
##зьым
лаг
ёросъёсын
пресс
басьтӥзы
Бен
Фин
##ёсын
пыж
##ёсты
Дмитрий
песянай
теле
Ӵапак
##ъял
аслэсьтыз
##ъяно
учыръёс
школ
вала
поттыны
эт
23
Огъя
##етъёс
##ферен
##зыя
асьсэос
##ерма
Таяз
кен
Ур
калыклэн
квартира
метр
ӟечкыл
пыриськыны
милемлы
##дан
тырше
Пёт
##анысь
##ила
##аськом
Мыным
Пётр
Быдӟым
##ениос
курадӟ
##езлэсь
Москваысь
школае
##арь
толэзе
##иж
куашк
лэсьтон
##иськиз
Тросэз
гуртоос
шуыны
азе
чуз
кемалась
уката
шунды
##ёзы
##ыныд
серек
сэрег
##стон
Ана
куке
##ъяськизы
шудо
ӵошатсконъёс
басьто
Син
Юрий
Солы
Таиз
чоры
##ъес
нокыӵе
ӵукна
60
##ле
##йыл
удал
чик
500
Совет
мы
##тос
учкыны
потыны
Вавож
##моз
тӥрлык
тодо
##алья
огкыл
##циын
24
Ир
##ади
юнмат
нулл
##СЬ
юб
улонэз
больниц
Уч
тонна
##осы
пуктэмын
##исьёслэн
##еств
ӵыжы
учкыса
##скысь
институт
лулчеберет
##ерь
##инлэн
##азэс
фил
шедьтыны
мае
ужъёсты
##куспо
бызьыл
##рат
вед
гожтэт
тырмон
дышетскись
спект
ёросъёсысь
верало
Соосты
##лю
##сим
ветло
трактор
##ный
оскон
##андид
##озэ
ӵапак
вир
вур
быз
##тернет
сылэ
вайыт
##бор
пенси
##инов
документ
сыл
арлыдо
лоб
##оссэ
##ание
депутатъёс
зор
мӧз
кылсярысь
бам
Азьвыл
нюлэс
кыдё
Нун
спортъя
ческыт
сёто
##лор
кул
##чия
Бр
сэрт
Мат
ивортӥз
Васили
ивортэ
потӥзы
Шор
Туспуктӥз
Шунды
##рач
ичи
Людм
кышка
сэрен
ворт
кутыны
ыс
ын
##исе
Эшшо
бурд
карон
герӟаськем
таяз
гожтэм
адямиез
Оск
лымы
пиосмурт
ию
##бай
верамезъя
Кузё
кандид
кудӥз
шутэтскон
##анк
яратон
котырын
вераськыны
Людмила
##иськем
##ём
синп
Якшур
Пут
##тытэк
предприятиос
##акль
##ыкыл
##чество
Пай
##лощ
нуналаз
ӝуж
быдэсак
##бар
пӧй
кезьыт
вы
кутске
198
##бург
Под
мер
##ша
##аосын
урок
##ух
ульча
сӥземын
наука
ме
Пус
##арст
вае
бигер
##никъёс
##аша
чотын
библиотека
Василий
Ол
ферма
##етэн
яркыт
валэктон
юанъёс
Максим
вӧлмы
группа
##ектос
мастер
##юз
Иль
##овой
тыршо
##аме
##пуметӥ
коркаос
возёс
куноос
Юг
##мун
вормонъёс
иськем
ru
ортче
емыш
басьтон
##ранс
корк
городын
##мында
194
шоркар
семьяос
Наталья
киос
турт
##тал
##ябре
##маз
сьӧд
Ром
##руг
Милям
##иса
люкетэз
фонд
удмуртъёслэн
##ыкуз
##лимпи
27
омыр
ваён
асьмелэн
Ижев
пуж
Мария
сог
уш
пыриськиз
пур
Евген
писпу
Быдэс
##скус
жуг
автоб
юрттэ
##ъяськонъёс
амалэн
малпанъёс
ветлэ
##ью
26
##сиос
зарни
##еон
80
площ
70
гид
кандидат
Коть
кутскон
академ
##тыл
Башк
Перм
##ытӥсь
тодма
##ӧдья
ӵемысь
##ериал
каре
дышетонъя
куазь
Ним
гу
##аськон
сомында
##ограф
азинтон
ӵуж
##скель
улӟ
сӥзьыл
бӧрсь
##ума
киуж
чорыг
дораз
Кыкетӥ
##рет
культур
спортсменъёс
юон
Нылпиос
##тч
огпол
под
тодаз
медаль
##ыртэм
басьтэ
тӧдьы
##зылэн
арысь
сӥль
нылпиослы
специалист
##ьян
кат
##як
муг
Кыр
ветлыны
##льтура
##ляд
дӥськ
удысысь
##анал
Пу
##ехан
Борис
кылбурчи
##сыр
кутскем
бен
Люб
##рист
сётэм
На
##ъяськыса
экз
возьматӥзы
вормон
##тӥськизы
карисьёс
утьыны
Анатол
воргоронъёс
##ияз
бордысь
##ъяськись
ужрадэ
корт
Анатолий
##гуртысь
Ирина
Зар
##эныз
конферен
Сам
арх
##иплом
магаз
пык
##каез
Леон
округ
Кез
будэм
ветеран
егитъёслэн
гыр
вуылӥз
вордӥськем
##тымтэ
возьматыны
Вуж
##мемын
гуд
висъямын
Бӧдья
куасэн
Пар
##тан
лыдэ
Татарст
док
сюресъёс
ӧтч
тонэ
##щик
##ско
кын
улонысь
вӧсь
Москваын
кырӟанъёс
произ
пыртэмын
палэнэ
тӥледлы
Вен
Муз
Геннад
Кыш
Дышетск
туспуктэм
##ранспорт
##алов
быгатэм
Тодэ
милемыз
##ёва
адӟыны
Пум
общ
эмъю
Геннадий
ивортэм
юрттыны
гожтэмын
Дор
валаны
верасько
вайытом
28
##ветл
##ла
2014
котькудӥз
творчество
##рм
Св
##гу
вол
##ств
лагерь
Жаляса
##анэ
Анна
калыккуспо
адӟыса
ветлӥ
Пол
пумиськон
Ӵош
##дат
##тыку
Уй
##нолог
луон
врач
калыкъёслэн
##ильм
##ыкум
радъян
тазалыкез
300
тылпу
спектакль
Выл
кино
университетысь
Республикаысь
веразы
кивалтэт
йыг
##цев
шукк
ваньбур
тӧл
мылкыдзэ
##иды
сюресэз
##скусство
Кия
##ъёсыныз
##акт
Президентэз
сьӧрысь
Туала
##ВА
Эм
Кореп
ортчизы
мыны
##тӥськомы
кылдытэмын
йӧскалык
фор
##ида
##елы
специалистъёс
малпам
##нам
гим
карыса
воштӥськ
Ой
закон
Туспуктэм
сол
##имов
элькунысь
мыно
нылкышноос
##аков
Вуоно
азбар
##езид
туб
##атья
##алаез
йырыз
Пермь
##ъяськем
##идыс
35
Иис
материал
пӧйшур
Бу
басьтыса
калыклэсь
ӧжытгес
ыб
Пуд
##сэт
чем
тырмыт
ужберга
Кивал
##иськоды
##ылӥм
2016
тыныд
кош
поттэм
##ӥськом
##ото
шуэм
кӧт
ди
таб
пукс
пырыны
град
##ольк
##тӥськод
тодэм
##тылы
нылпиосты
##уль
##алтэ
шудыны
юбил
бӧрсьы
Семья
##оссы
каб
часын
##арто
##еспубликалэн
Нина
гань
огдыр
##аськыны
Степ
комисси
кивалтэ
##ытӥз
Тӥни
тым
минут
пумын
пуктэм
##ныр
азьветл
градус
мод
кышк
ужпумъёс
классын
пыриз
Ши
война
##ень
##каен
йӧн
##эт
шӧд
Аз
тӧро
##ыб
##анэз
интыосын
Михайл
##нов
кельше
##инар
##исез
адямилы
##шин
бугыр
пиналъёсты
ӵектос
Арлы
артистъёс
##цие
автом
Бай
Гож
выжыкыл
куро
вожвылъяськон
##катер
Екатер
##ентство
лэзь
Арт
училище
эс
Тодм
тупатъян
кич
##лё
шуисько
арбериос
нимыз
пыре
тодӥсько
##шкем
##ёсы
##раво
возьматэ
яратоно
диплом
зал
##онов
сузэ
##мылэсь
соослэсь
##ебере
##осп
эскерон
##ден
кылемын
##кае
буё
доразы
усьтон
##ская
##казы
ужпумез
##елен
пӧрмиз
кылдытон
жингырт
##ольклор
радъямын
вылтӥ
мылкыдын
90
чида
кошке
##лимпиад
эрик
Никит
йылпумъянъёс
потон
ӧс
##илы
##ласт
##цов
##аськы
инвож
Сп
##дыт
каро
так
##тӥськись
Красно
Бур
шорысь
кутски
ӧнерчиос
##ром
##ских
##лаш
адямиосты
шап
2015
техник
висъяське
факультет
пырисько
##ӵак
агентство
Сан
центнер
кыле
Валамон
шуркын
Кияса
##еф
##ялтас
экзамен
Элькунысь
дунтэк
тем
школаос
синйыл
Таз
сизьым
сайт
Дума
удысэз
тодосчиос
улэп
гурезь
Иисус
кутэмын
##аськись
ӵошатскон
##орд
Ай
малпа
городысь
улын
куб
сюрслэсь
Федер
##ить
##цион
усьтыны
Дышетӥ
Югдур
##аысь
##сур
##яб
вуылӥзы
юнме
куддыр
макем
##мыны
керт
вылды
Кузь
ванд
Йыр
пег
шӧдск
##есси
магазин
куарто
бускель
Правительстволэн
тал
##мышлен
сяська
##азез
шумпотыса
СП
дырлы
Иже
мыныны
пересь
ватсаса
ортчытыны
Сюрес
курс
телек
редактор
пиналъёслы
кылдэ
инкуазь
Лыд
ветлы
берпуметӥ
капчиен
кидыс
усьтӥськиз
Куинь
укно
##тысен
матын
Путин
искусство
куать
29
кис
хозяйствоос
умо
паль
пертч
тыро
##нее
мылкыдыз
студентъёс
##сэй
висъяны
Ярам
тае
чылкак
##едит
##аре
##овь
##яло
Марина
пушт
литературая
механ
##камен
##илов
нуны
##евр
эксп
усиз
транспорт
весь
ша
##ёзь
вырӟ
##ров
Кузеб
##тӥяз
сент
##пар
##нод
Отысь
##ежис
Павел
арен
шуизы
пич
книгаос
Малпасько
ой
##таж
кылэ
##каосъя
##сылэн
##тӥськем
##ытэн
куарус
##озяз
197
пото
шуркынмон
Тро
Ум
дышетыны
поллы
##еным
вордон
Валерий
телев
солдат
моз
Ӵук
Си
##зылэсь
##ламент
лыктэ
Юрт
Вормон
вуоз
Шумпо
Нялтас
вормисе
Бреч
Чай
Кузебай
##реб
соиз
##СС
муртлы
апай
ӝе
дэрем
Дас
эскерыны
вод
фольклор
герой
жаг
вуо
зэмзэ
асьтэ
возьматӥз
Фё
##эсьтым
Кизнер
ворс
таза
пумаз
##робнее
Подробнее
шок
##ёсыз
адямилэн
##циосын
##печ
Кир
##али
чаклало
##ход
возьыны
литератур
котькыӵе
технолог
Кырӟ
эктон
##брь
Сек
##онзэ
интыез
Фёдор
маин
Город
Вож
ферм
##олж
кел
чакласа
коньы
люкаськем
лы
учыре
соглаш
Итал
Йӧ
яратэ
право
##елэн
##ынад
##эзлы
##тод
##аллям
Эстон
##ьютер
гудыр
##мас
пиез
Киров
выльдон
кутон
аслыз
апр
##баш
##тымон
бырем
гуртъёсын
пумен
Ваньзэ
Любовь
Солэсь
вӧсяськ
план
шон
эст
коньдэ
берг
Чебер
каф
валаса
кариз
кароно
ымныр
##мтэ
мул
уськ
будэтон
телеканал
Бог
Лар
сӧ
кӧс
Кенешысь
республикаысьтымы
Юн
##кова
##яса
##ато
быдэсъясь
татысь
##ежиссё
валамон
##алляськ
Петер
тысь
##ОН
##ямыс
калыкен
ветлэм
буш
групп
дӥськут
##атыр
быриз
вид
возён
ял
ужазы
потыса
Бречалов
юнматэмын
автобус
ужпумъёсты
грам
печатл
193
интыяськемын
тодӥськы
45
радъяны
арган
улонын
бал
##тӥськоды
##ысьтым
чемпи
сем
службаез
Спорт
нул
кырӟась
выжыысь
Нылпи
Леонид
##аосты
##ность
Ам
Юкамен
йылэ
##весь
телефон
Учк
ӵуказе
пуштрос
Лу
буб
Адӟ
СПК
Ор
##анын
интыяз
ёзо
Ак
##аев
калыкъёс
шудӥ
школаосын
##циез
пӧзь
йылпумъяса
губ
196
##оспит
##тӥд
ортчозы
мынӥз
Тур
министерстволэн
пукт
Бӧрысь
ньыл
пытс
##енд
##скы
##агыр
вуымтэ
Интернет
##аськиз
Ачиз
жаля
дуннеысь
мӧй
##ондыр
Кат
##каын
вын
##уев
##ъёсынызы
2013
вазиськиз
##азен
##ымшор
пегӟ
дырыз
юрттӥз
ожмаськ
##ыды
##иськыса
трослы
##лет
##лыксэ
прав
Ки
улӥз
Вера
вись
##ӧп
шумпотон
##ъяськы
шедиз
Быр
улосысь
соци
##лок
бадӟымесь
дыръяз
туризм
команда
паймымон
умойгес
быдэстыны
эштос
##ытэсь
ошмес
Гужем
газетлэн
толсур
адӟытон
##бась
Дар
##ъёсызъя
##тыш
куарусён
Пӧртэм
суб
эшъёсыз
асьсэды
Кузне
пунэм
Пен
Эл
пусъе
гимназ
##ги
Соослэн
лыкто
кышкытлык
газе
##икъёс
дорамы
наукая
дасямын
янв
кичӧл
юртъёс
лип
мыл
ужзэс
школаез
наукаосъя
не
кулэяськ
кредит
##браз
черкогуртын
коммун
Совето
Азьло
##емец
век
луись
##сих
писатель
артэ
Тазалык
малпало
лыктӥз
кыскыны
кад
##енко
Газ
##еевич
пуктон
лэсьтӥз
Григорь
меӵак
произвед
##ытозь
00
коп
ёзэт
куспо
пусйизы
вакчи
Евгений
выт
кырӟаны
ӵемгес
вӧзын
##дырт
выльдӥськ
объ
##ызлы
дека
министрлэн
дурбась
физ
дыраз
##ылӥмы
радэ
финн
Николаевич
мозмы
##ъяй
ожгар
##ктябрь
Пусй
выжыос
Христ
##ота
Монэ
аспӧртэмлыко
Нов
св
кылзэ
ӵошен
неб
тодыны
##ественной
лё
##гли
##онлэсь
фермер
##атоно
тыршиз
Кузпал
Олег
тодосчи
31
Мылкыд
дуннеын
мултэс
Широб
март
лэсьтӥськон
ужпумъёсъя
усе
Котьк
компьютер
Широбок
баб
муртэ
Конь
покчи
кес
этаж
вуыл
кызь
соосын
пыӵа
юртэз
##ъялозы
Эн
кытысь
##асал
муртъёс
презид
шуркынмонэ
##ытыны
арозь
пуктӥзы
гожъям
тодматскыны
зо
Ӟуч
2010
Одӥгез
кылӥськ
площад
сузэр
##ОС
##ург
эз
##чин
араз
партилэн
ск
лэсьтӥськ
пумиськонъёс
Би
бордаз
атаез
##мет
##ъёсме
##аров
пиш
Антон
Башкорт
кылъёсты
дасям
Глазовысь
сал
учр
командаос
##алод
курег
вискын
стран
этно
мет
##er
сӧсыр
февр
##утэ
шаплы
кутэм
Башкортост
Сьӧ
##ылобур
директорез
Петербург
секытъёс
##ежиссёр
##го
вуэмын
##дын
тӥляд
шулдырт
##ылобурдо
май
##тырт
кылъёсын
мусо
##кина
##онтэм
егитъёслы
Вылӥ
куась
статья
##ёслэн
сюлэ
каризы
будэтыны
кылдытыны
кутско
быгатӥсь
черод
Горд
##ьӧл
##ная
возе
##тыд
##амак
шып
кылдытэм
дугд
виде
улонзэ
парламент
##тылӥз
Сӥ
##кым
синпел
Игорь
кыллы
195
лулчеберетъя
карымон
адямиослы
пайдаё
электрон
Аф
##ициос
400
бӧрысь
лэсьто
##ӥб
##ослэсь
##ледж
писательёс
ортчись
Бы
##изь
ӧдъяз
экономика
Татчы
##вай
шедем
Секыт
лыдӟисьёс
Перев
бас
укыр
амалъёс
золгес
университетын
Лариса
Тау
азинтонъя
##обр
кыльы
Туспуктэмез
гумы
ти
коньдэт
Ваньзы
##ковский
сап
Кема
шт
##икошк
кутскоз
##оген
##иналэн
Дека
дасяны
Эшъяськон
Пудо
##газ
шыр
тупась
борддор
Кытын
##нь
##мыса
##онлэн
пусъем
ужанъя
яратӥсько
##шев
малпай
Фестивал
##онт
быдэн
Ворм
учреж
пуксь
усьтэмын
Гербер
##ово
эмъян
Васильевич
кырӟасьёс
инвест
##ъяськисьёс
возьмато
##алид
##никова
кузьм
олок
будос
сюлмысь
##тышлы
##омор
192
гожтыны
Огпол
##юр
##алляз
Казань
Пис
пил
##ызьы
асьсэлэсь
##аськыса
учке
уйпал
баз
##ъёсмес
пог
курек
##ылэмын
##ряд
##раж
Вар
##сер
##мазы
отд
ӝутыны
Чакл
егитъёсын
республикаямы
шай
кылё
##авр
ивортэмъя
Умой
пыриськозы
шер
##ёслы
##еда
кизил
##аня
Евро
эмъюм
тымет
суз
тоды
кенешон
кельшиз
черкогуртысь
Коньдон
##ъёсазы
сюлм
Декабрь
Род
Прив
мында
курыса
Кап
Москвае
Из
мыр
кудъёсыз
котькыт
доктор
##осъя
##амез
ӟечгес
##гуртын
##атэз
##льян
дышетске
##цова
##ЫСЬ
пусъё
Калаш
Егор
##ыто
басьтоно
кивалтэтлэн
огназ
ёрослэн
эскеронъёс
2012
филолог
юалляськ
##ертэм
##женер
##эмын
басьтэмын
мынӥ
куартолэзе
коньдонэн
нюръяськон
немец
##ГУ
мынэсьтым
ӝутон
##антин
агай
сбор
##лянд
ӵектон
Санкт
фрон
Нунал
воштӥськонъёс
##тов
Соослы
Красногор
Тыл
валысь
асме
2009
Азьланяз
сӥзьыса
дунъёс
Шаерысьтымы
гожтӥз
ваньмызлы
классъёсын
Финлянд
Буд
Гр
Ортч
пей
самой
Баб
##лин
Юкаменск
умоя
Беломор
инвожое
кошкем
Шунд
професс
Дунне
коньыву
ужано
сюресъёсты
векчи
Карт
потоз
политика
пас
Усто
промышлен
Бран
деле
##рах
мили
Ижевск
быгатӥзы
Огез
объект
комитет
йыртэм
стан
сӥё
армие
34
пыл
##ъяськозы
огдырлы
гудырикошк
Мет
##налэн
##аськем
пумо
участ
эскеризы
Беломорских
Сур
ӟыр
##мизы
Татышлы
кер
тырме
##риг
##каосын
люкаськизы
дэмл
##ar
Зэмзэ
арлэсь
Вордск
вамен
##граф
оштолэзе
##ана
мылкыдзэс
Сар
конкурсэ
хор
##акова
Ата
##ъяськонэ
Пыр
жал
кыз
##ыч
Вах
По
чинь
шулдыръяськон
сётонъя
выльзэ
нимзэ
бума
дис
Союз
инстр
комбай
##аськомы
социальной
33
тямыс
шаерын
##ССР
мам
##сал
##шуг
тырмиз
каллен
Сьӧл
##ть
юртто
ӝут
шуак
шоро
выре
тӥледыз
Лэсь
псих
##чид
Екатерина
лёг
ортчо
Адямиос
ведь
##ИН
##льб
##тэмзы
Нев
нылыз
берга
кыскон
ба
режиссёр
##яр
##тӥды
пыриськем
люкаськиз
администрацилэн
Иванович
Шаерамы
Грак
##еева
##утб
Дыр
тылобурдо
валало
Тулыс
Кемалась
Шул
##in
тӥни
Калашников
##онысь
учкисьёс
##онова
нокыт
люка
Шуом
Чайковский
туш
пырак
данзэ
##инлэсь
вайыны
анаез
Югдурез
луоно
сюан
басьтӥськ
йылпумъяз
югыт
городэ
толшор
Вераны
Милем
Культура
капчия
эстӥськон
кутыса
секрет
Пиналъёс
нарк
шуом
Мин
Аг
Пук
пат
чагыр
сыло
##ыкар
##ылӥсьёс
ветлӥз
номина
визьнод
Горб
ӝутэмын
ярато
Матысь
что
чаб
##каз
##ТО
##илэсь
тул
##естьян
озьыен
улыса
2008
Выж
##изор
инф
котырысь
мунё
ӝоген
Приволж
##ское
кулэм
кӧл
оч
##кля
##эд
##ьес
куто
куаш
тыршем
йырси
##евлэн
Таин
классэ
Конкур
Ну
Республикалэн
##ивной
Сюм
Вя
##олэн
дышетскем
Валтӥсь
юж
ваё
##обиль
нырысетӥез
инвалид
образ
##уст
тырмымтэ
фильм
ваче
пумитаз
Пере
дуннеез
шутэтскыны
юртэ
луи
##аськод
усточиос
картош
Песя
##мыс
##назы
проек
дунтэм
адямиослэн
ветлӥсьёс
банк
ужаса
азяз
быгатӥз
пуке
Гур
дунъет
Нылк
75
анал
калэ
пырон
лэсьтэ
Инв
Нимысьтыз
синпелет
Нылкышно
##инлы
дыръям
йыруж
вортт
55
Ачим
##чыт
150
Сарапулысь
Музъем
шоб
##dm
висъя
##ысалзы
тынад
дырозь
шудэ
Воргор
Од
##изатор
круж
луонлыкъёс
ужбергатӥсьёс
##сьӧр
##каысь
2011
2007
##ехник
##иськись
коньдонэз
люкам
нуналэз
возё
вузкар
кибаш
аслам
элькунамы
мерлыко
Пиос
##ӵыш
##антэм
Инмарлы
Ӵошатск
комбайн
Оля
##ъезд
Сюлэм
##лаг
##емысь
кинлы
дуре
синмаськымон
##лыдын
карись
шудэм
Заг
сылӥсь
обор
##ылӥсько
шӧдӥське
Сюмси
лымшор
дорысь
##этӥ
##изация
##уй
мылкыдзы
тренер
600
кивалтон
дурын
Нь
ат
сётӥське
лэсьтӥзы
йылаз
будӥз
нюлэ
радын
веранзэ
акт
чиг
##нова
##ыен
йӧно
Приволжск
##en
Николаевна
Зарни
Пӧ
##пан
##шер
##ъер
##тозь
пыриське
Котыр
чурыт
чемпион
##кадь
##скиз
##иськоз
##цилэн
ляк
куарусёнэ
тэтч
покчиос
Уно
сётск
кивалтӥз
лыдъя
вазиськыны
поттӥз
Воткин
гожтэ
кивалтӥсезлэн
Котькудӥз
сяськаос
возьмало
юбилей
липет
инженер
Конст
парсь
быдӟалаез
кибашлы
##сылэсь
Куддыр
куриз
егитъёсты
кылзӥськ
диск
##шина
интыысь
ваем
##оез
тулыспал
Италмас
гуртъёсысь
учконо
арлыд
толалтэ
шуз
вуыса
##удар
нуналъёс
толэзьлы
Шкля
кай
муш
ветлӥсь
лыдӟыны
Сюл
пыртыны
кизилиос
бумага
##изн
кунян
капчигес
арняе
коллективъёс
декабр
пул
сьӧраз
##оръёс
вуы
юрттоз
кудӟ
Татарстанысь
тамак
##армон
вормисьёс
##роном
Кытчы
лӧп
пост
ыж
кылдо
верос
асьсэлэн
Медвед
буйгат
Яков
зӥб
##ование
ужрадъёсы
шӧдскымон
##ригад
##училище
##ЧС
висъяськоз
Михайлов
толсуре
МЧС
национ
##изэс
оглом
бадӟымгес
2006
асьмелы
юа
карем
валэктӥз
Ивор
Тр
##пп
ӧжытак
буре
Сьӧлта
жаль
##ре
##АН
##алек
ужрадэз
эмъясьёс
нуназе
азям
##тылӥзы
##исьтэм
усьтӥз
Кас
##иськизы
инсп
стади
шорлыдын
песянайёс
семинар
парк
пыро
нуналзэ
кырӟанъёсты
##чиез
куное
Егитъёс
англи
##гал
Асьсэ
65
Аш
Мит
тыршисьёс
Лек
Ож
зын
##аллязы
удыслы
конкурсын
опер
42
мынэм
адӟиське
музе
вакытаз
реп
ялэм
##анъя
##озд
сётӥсь
курон
Тыр
##зал
кылизы
ёросъёс
лэсьтоно
вӧзы
пересьёс
32
чыр
##лия
бадӟымез
данъяськ
##мос
вен
нуэ
##иськонъёс
Ивановна
##ебересь
туризмъя
Константин
Кл
пыдын
атае
Адями
##цева
##оссэс
кылзэс
мынон
дорозь
выро
Корепанов
Шулдыр
валай
##оловной
Маш
##ясько
астэ
поттэмын
кизён
квад
Ват
##тэме
басьтозы
Кирил
##тэмзэ
нач
возьд
журналистъёс
Октябрь
драм
шорын
люканы
водитель
##ыез
191
тэр
##инстит
вуи
будо
сьӧлык
азьветлӥсьёс
пыӵатон
##ацион
Красногорск
Лид
##едм
кутӥзы
##угун
грамот
воспит
радъяськиз
аслым
кост
##еевна
##ЛЭ
чакла
Валентин
Об
##ита
##идор
бордысен
асьсэлы
театрын
котырт
Кулэ
семьяын
орден
Атай
Зина
вуыны
Пушк
кабин
##пыр
газетын
Возь
Луд
Тим
биатл
##едра
гуртъёс
пытсэт
устоез
кузпалъёс
##ниос
кыдысь
бюджетысь
лыдъяське
огзэс
См
дон
##удож
радъя
йылпумъям
пумитазы
тупатыны
усё
кутскозы
сурет
Петров
##елик
##умент
сюлэмшуг
заводын
балл
ортчоно
##ъёсызлы
ёзчиос
фестивале
Школаын
кыдёке
Кузнецов
да
ужен
мыноз
дышетэ
##амтэ
кеч
Де
##про
улӥсько
дуныз
учко
пьес
ӧдъязы
пач
раз
##атура
сотэк
тодам
##циысь
##инград
зарезь
Васильев
Тодмо
профессор
пыӵал
квадрат
азьмурт
##кам
##ислав
Гуртын
##иезлэн
Май
##унов
келям
##илия
пусъён
##тэмезъя
аб
##емат
дышетӥз
Ужрадэ
бервыл
вуттӥз
музъемез
Данъян
дышето
толэз
алигес
классъёс
серем
Зоя
республик
##атъёс
##тӥськозы
тодӥсь
шаерысь
шӧм
##ея
возиське
ветлон
лякыт
келязы
Кылбур
##грес
Гавр
Ряб
кошко
возёсъя
ос
вайиз
сюлмаськонъёс
Федераци
##ясь
пыӵатыны
Шонер
кам
эше
машинаос
Ош
юонъя
пуктэ
сылал
Пед
ёзэз
##чес
кизили
##олю
нуись
лэчыт
ӧтчам
Еме
##ъяськом
кенешлэн
мунч
##уга
##евт
пие
##остр
рек
##вер
Калыкез
бызьылонъя
Кни
комиссилэн
Ут
предм
эшъяськон
дасясько
инкуазез
##оме
книг
Вашкала
Пӧл
##налы
##ари
дырын
управленилэн
Мус
Уш
юм
потто
министерствоысь
Пайм
##олод
киын
Алигес
ужамез
жив
лушкем
##еор
##асия
юртъер
пуктӥз
лыдъясько
учеб
гожъя
манетлэсь
##уктор
дуннее
ӵошатсконъёсы
Емельян
бертэм
##итор
быгатыса
садэ
Ню
Олимпиад
##ыдм
тодӥ
кусыпъёс
Вис
мик
##ЕТ
##але
ужтэк
крезьгуръя
берыктыны
Ленин
##раждан
пеймыт
Ок
##арез
дорам
##al
куалек
дӥсяськ
##понд
сётыса
быръем
семьяослы
ветлӥзы
##ауре
Вить
Мик
гос
##КО
Вячес
бин
выльдэм
Вячеслав
бил
чебересь
Куинетӥ
радъям
радъяське
##город
##амбар
УдГУ
Анаст
форум
##рант
психолог
улаз
элькунысьтымы
куноосты
##респонд
##ицей
сётоз
адӟы
аресозь
эмъяськон
Глазкар
лач
700
пл
##зэн
##ное
пушкын
Анастасия
##нев
мумы
##идение
дышетскиз
ром
част
##руш
ужын
вузаны
Венг
Зол
Тих
##вол
вордскиз
Газет
кыль
ваньзэс
кутскыса
песятай
телеф
коньывуонэ
чил
##ьер
##тӥн
ёросэ
##ъялоз
##елез
прод
Зак
Юлия
##илова
утисьёс
анае
дасяло
Лыдӟ
800
##айн
##иная
пыдо
законэз
Невостр
##асез
ульч
буёл
кан
##отик
сюро
шораз
36
Камбар
окт
##овлы
кылдӥзы
вн
##ято
##сид
##лязы
люкаськылӥзы
пусйыны
Гуртоос
кырӟанэз
военной
бригад
футб
чай
азьлан
воштыны
программ
буйга
Ди
выд
пыры
##культура
##яське
школалэн
udm
Эскер
##оза
нокызьы
нюръяськ
Рус
чугун
##вод
потт
криз
кылдытэтлэн
сант
арез
интыян
эшъёсы
адямиосын
телевизор
##луд
##инэз
интернет
юрттэм
висъян
хозяйствоя
кань
сёты
Катя
Пал
##ох
##амят
таин
тырмоз
Арм
лыдпусъёс
##цент
вераське
Инты
усьтӥзы
леке
жаляса
Тае
карын
юртысь
##окъёс
матэ
вуттыны
интыосты
палась
ачид
лауре
##st
##имес
вӧй
Котьма
Зинаида
сётоно
палэнысь
почта
Ӝыт
нылпиослэн
Метки
Депутат
удалтӥз
##ласть
конт
пукыны
##чиослэн
Чуп
##АТ
радъяськоз
ӝук
возьматэмын
котьма
витё
агроном
олом
Тазьы
##ылкыдм
матэк
хозяйствоын
книгаез
##соци
Яке
ре
##доно
тыроно
адӟисько
##альчи
кылбуръёс
кариськиз
ыбылӥськ
кисы
Крезьгур
эр
гуртъёсы
азвесь
улӥзы
малпанэз
вотэс
Вахруш
Невоструев
Ерм
##ылыса
##ожо
оско
Котьку
талы
##маш
люкаське
сюлмаське
поселен
##яков
##om
арлэн
одӥгаз
теат
нуыны
уйин
басьтӥ
сётозы
нуиз
кивалтӥсьёссы
Григор
ӝужыт
Вылаз
Пусйыны
Вет
Пок
Уль
##амес
нылмурт
пӧрме
самол
тодазы
спортэн
кыско
##иза
ужай
##ционер
люказ
комплекс
отряд
вордскемын
##ыкузы
пӧсьтолэзе
##асс
##окез
Тунсык
##нянь
##алом
шедьтӥз
йылпумъяськиз
сӥлы
гажан
колхозын
тулкым
##ерд
адӟи
шедьтэ
##каосты
Быг
Оглом
уноез
Юр
Герман
##ертод
ужасьёслы
Амер
Лидия
Толон
пособ
Ашальчи
Кеч
улӥсьёслы
Яковл
чал
##атэ
##ылон
##тонэз
улосъёсын
##кысь
##ерн
проектъёс
сантим
##акул
мукетсэ
люкетаз
Витал
декабре
##осто
##кагаз
малпаз
##олл
Герм
кузпалыз
Ра
зад
юри
кутэ
ёзэн
пушкы
администрациысь
ичигес
бес
дэ
##еатр
##an
комн
миым
кошкизы
улосъёсысь
азинсконъёс
Корепанова
Мун
пырем
Куке
вордӥськиз
мӧйы
Истор
Яна
##иш
ужалоз
##разы
пайдаез
Иш
вуэн
огаз
учкытэк
ньылетӥ
мылысь
чу
##зьыны
берен
##ӥськод
вутты
валэктонъёс
Аб
##иум
нимын
воштӥськиз
кужымзэс
перепеч
пырись
дуннелэн
ортчытон
Студ
мара
##ети
вылазы
тырыны
выльдыны
манетлы
коркан
кир
##зор
##юм
азинтыны
культураез
ӵошатсконэ
быръемын
Позд
пов
##юри
мыноно
Арня
яратӥсь
устоосыз
##ъюрт
Европа
##ЛЭН
##УР
Кул
умоен
шо
##емзэс
эшъяськ
ӝега
Григорий
Журнал
диз
##рей
##or
Соиз
оске
пальпо
небыт
##ытон
##естр
корреспонд
ужасьёслэн
тодматскон
орган
Медведев
Там
кия
кияз
кыскемын
центрын
Сав
созэ
вырыны
##тӥсьёслы
кельшы
чеч
##скыл
огазеяськонзылэн
бичет
Асьмеос
механизатор
##итай
Алё
амалъя
куараез
пенсионер
гудырикошконэ
##нак
##ета
##дӥсь
радъясьёс
висъям
сапег
Война
##остэм
ужысь
##пута
эксэй
котырес
Маин
Ел
пуко
##ческой
крестьян
Ворон
апреле
Тю
##онзы
ӵектӥз
худож
##пер
##быт
шедизы
программаез
тодматӥз
южтолэзе
тэк
Ӝоген
ултӥ
инд
кыске
Гар
грамм
вераськизы
штраф
Су
Уз
##ыст
куриськон
Ко
Пыд
чырт
##гел
кылзы
##ызъя
##циен
##ылӥллям
кельтыны
тырмо
Куазь
лыктыны
вуттэ
##ur
##толэзь
ужасьёсты
Зах
Мир
посё
лаб
сан
куртч
##ний
куронъёсты
возьматозы
Семёнов
Ден
##утэз
##ессия
##рой
##агог
вормиз
садын
Дмитри
Геор
##маса
##фир
дышетско
адямилэсь
вераськонъёс
Люкаськ
Шкляев
жад
ваньмы
Ӵуказе
котькытын
инструмент
сантиметр
куазен
##пуск
ортчыны
буг
Корка
малпаськыны
компан
Горбунов
Век
Сиб
верамын
утчаны
бырйизы
Асьмелэн
Загреб
Книга
##ушк
##амин
аръем
кылёз
бад
пинь
юр
##дин
эскеро
классэз
клубын
мырдэм
Виталий
##ёссэ
интер
##тӥськыса
секытгес
кужымзэ
библиотек
##энызы
сентябре
Сцен
олимпиад
Мукетыз
азьланьтэ
Германи
Бась
кутӥз
медиц
Каракул
архит
Фран
##ге
утиськ
вормыны
программая
Романов
Кузьм
Фестиваль
Во
Сад
тыш
тупаса
пенсие
ага
оф
возьмаськ
пиналъёслэн
быре
университ
луш
укмыс
##уналэ
иворъёсъя
250
пыри
ассоци
пыриськисьёс
валэктэ
шараямын
тӧроезлэн
вуозы
огзылы
суредась
библиотекаын
дик
етӥн
кылэм
манетозь
усьтӥськоз
##онъёсы
оскы
Колхоз
##густ
Минист
пел
##скем
палан
медал
депута
тазэ
луэмзэ
нылпиосын
куддыръя
Мам
пит
уголовной
пумозь
спис
Иванова
Тунсыко
##амылэн
##тэмъёс
туз
троссэ
мылкыды
удысэ
шаертод
Дэм
Йыл
##скыны
карисько
Коля
Матв
Шундыкар
тулыспалэ
Пл
Шӧ
потэмын
эмъясь
Кель
##рор
##овед
ужъёслы
гожъяськ
дасо
пытьы
Кытысь
ужбергат
Денис
38
Рад
мылкыдм
таос
нылы
##шкыл
Сверд
Суред
Лык
батыр
пазь
##яськиз
шедьто
1990
Тӧроезлэн
Яра
вот
##дыса
ужлы
вуэз
вуыло
вакчия
оскымон
Вордӥськ
учрежд
толшоре
бар
##амат
пукто
при
Свердлов
Ян
оже
Михайлович
Визь
пес
##зым
эскерыса
интыосы
дугды
люкетсэ
Уйпал
субсид
##еръёс
##куз
исп
##яськыны
бук
ярдур
математ
ёрм
##ляз
##овод
синву
Гуртысь
пуны
Петрович
Укра
вый
##овез
ӧвӧ
паймыса
##tt
валась
кивалтыны
##икаез
паз
крезьгуро
инъет
##тэзлэн
##там
пыризы
воштонъёс
процентсэ
берыктон
потӥсь
площадь
ойдо
##изнес
ялэмын
кие
ява
##ирт
мынӥсь
Марий
капит
изд
дэмлан
комиссия
вӧлмытон
Дышетӥсьёс
интылы
удмуртлык
секун
делега
Кирилл
Иг
хим
##иослэн
басьты
кыкез
секытэн
##кы
##етъя
карысь
##ельс
ӵошатсконъёсын
кужымез
бырйыны
кулӥз
каньыл
##вӧл
##тач
часозь
шуге
37
двор
Ӧй
##овалэн
амалъёсты
##ные
быгатонлыкъёссэс
Ньыль
##вӧй
##20
##анэн
луд
потӥ
юртаз
басьтоз
ветеранъёс
быдӟа
Степанов
ярам
кариськи
филармон
тушмон
ЕГ
овол
юрттӥзы
вайыса
луэмез
историез
автомобиль
феврале
пурт
памят
тодыса
йырзэ
валантэм
кыкетӥез
шыпыт
##ударство
Дон
ужъёссэс
кошкыны
бертӥз
ӝегат
интерн
юрттон
уногес
дӥся
лябӟ
Дышетӥсь
цир
вуылыны
Александрович
Васильевна
гондыр
сын
##ти
##окке
сямо
кинлэн
ӵошатсконын
малпанэ
служба
##бам
Кутск
вылӥе
Инмарлэн
утчаса
Макем
Думаысь
##вал
кутоно
уллё
колледж
Шутэтск
сорт
поезд
чакланы
муртлэн
кылдытӥз
Татысь
инспектор
Улос
ортчытӥз
архив
техникум
огзы
утись
быгатӥськы
##тӥсьёсты
Тодады
дасяське
Роман
Тазалыкез
произведениос
ӟырдыт
Альб
огзэ
огазеяськонзы
##ательство
практ
##цияз
возьматон
##ировать
нокинлы
вуылэм
##мач
палаз
быдэстэмын
Павл
Никитина
Америка
##энэ
порт
тыршись
шедьты
картэз
##надзор
Трокай
келяны
роль
##аськоды
манетэн
Арх
Лул
ёр
##АР
##аосы
серекъя
Кышномурт
##оосты
пукон
ван
интыяськем
музейын
пужы
воль
вераськиз
эктыны
ӧтизы
Шумпот
арлыдоос
июне
##колог
2005
кыдёкын
ужкагаз
пумозяз
##ельд
адӟе
бертӥ
национальной
##ейб
дышетскыкум
эскеремын
куспазы
шугъяськ
республикаын
картошка
Зор
быгатысал
шудонъёсын
документъёс
зап
##сазы
йырин
шедьтӥзы
крезьгурез
предприятие
быръёнъёс
творчествоя
Хозяйство
дем
Ӧвӧл
гурез
узырмы
Советской
##ОНО
85
сил
басьтӥськиз
адӟиз
тупатон
элькунын
улӥсьёслэн
Можгаысь
ёзэс
##лыкъя
кылдэмын
2000
гуръёс
урамын
Дышетонъя
пиналэз
воштон
улӥсьёсты
дырысеныз
Президентлэн
Каракулино
##виж
##ально
часысен
кивалтӥсьлэн
Йӧскалык
семьяез
выжыосыз
Христос
бло
Уката
мӧзмыт
кризис
Гондыр
##ське
##пуш
пумитаны
##ыбыр
Михайловна
олокыӵе
Отӥяз
##оке
##ирант
нуо
толон
Вӧ
За
##мыя
сюриз
ортчылӥсь
Анатоль
куашкан
тек
йылӥз
ожысь
Ленинград
мартэ
##нян
азьмын
Праздник
Ойдо
Кост
Шуг
##кад
##му
утча
Куб
курыт
лыктӥзы
элькунъя
##тэныз
Башкир
висьыны
крезь
сум
##сом
##on
ноябре
лэсьтыса
куре
бырыны
Арка
лэземын
юнматӥзы
куронъёслы
дэмен
Поздеев
Пор
ӝот
##ьев
##ОР
висись
лэзё
Чупчи
Вуз
мылкыдо
тодмотэм
будэто
кузёез
педагог
Венгри
Лит
УД
поттэ
##иналы
валэктыны
Илья
Студент
Жаль
Мур
вадь
##ац
ӝоггес
улосвылысь
Башкортостанысь
Смир
эск
ужзы
шуи
юртлэн
вунэтэ
Паймы
ЕГЭ
Зав
Ном
быдтон
чаклано
Емельянова
Тӧро
ве
чут
кылыса
калыкъёслэсь
кылдоз
юасько
ужъя
##оград
вазисько
##иослы
вазиз
Алевт
шугъяськонъёс
келяло
Казан
Сьӧд
Ск
рез
фот
##зьыл
совет
##изаци
гуртаз
пединстит
Анае
тер
сов
##акъёс
##икул
тырон
висъяз
##каосы
Киб
шудтэм
ортчытэм
мадиз
Урал
юнматон
градусозь
Вордскем
Наст
ужасько
ужъёсъя
валаськы
кырӟа
дуннелы
Ортчем
Тамара
Алевтина
##ынымы
прокур
пукись
улосын
##тӥсьёслэн
кузьмаз
гадь
дунъяны
йырам
йылолъёсты
грант
кинэ
ужъёсыз
огкадь
поттӥзы
вылӥллям
##уллин
Ишмат
Рим
старт
веранэз
электро
Ид
сюй
сюдон
Удмуртилэсь
##емезъя
кутсконаз
доклад
кабинет
бесерм
##алим
##скур
ӟучъёс
Петровна
газетэз
маск
кузьымъёс
бугырт
ӟыг
йыраз
усем
пичия
инт
ортчытӥзы
этажъем
Фед
Эрик
Ӧз
тыршоно
данъян
машинаен
скаллэсь
Ӵукна
##вӧ
нод
юртъёсын
##ковой
куашка
Лож
СССР
Таня
##пай
##гус
дасяз
котыре
Так
лад
республикалэн
малпаса
шумпотӥсько
Дышетон
лулчебере
Йылпум
##ечно
ужамзы
Ӟечбур
##истъёслэн
Инку
Егитъёслэн
перед
Казаньысь
Фом
тып
уро
суредъёс
##ыкумы
живот
Гаж
##ый
Куас
проектэз
43
Палэн
Пуш
Тар
оген
науч
прив
учкисько
39
##яно
##еды
огенызы
одӥгзэ
выриз
ыстэм
пазьг
Дем
Пит
##пич
оскизы
шаермылэн
Концерт
театрлэн
Вожвыл
физкультура
##су
##ющ
##ЛА
валес
улосъёс
Шуныт
пушказ
Вак
Жен
##фим
##езэ
##ада
югдуре
витетӥ
бусыос
печат
ужбергатӥсь
министерствоын
лобӟ
Перевоз
95
лап
хокке
юыны
вераськыса
оскисько
лыкты
пӧрмоз
пудоез
этнограф
за
фам
##УН
ужъёссы
ужалозы
пырыса
##ледов
палэнын
Айкай
кафедра
Сцена
сесси
##арий
гожъяны
кивалтӥсьёслы
журналистъёслы
берытскиз
##ent
Национ
Ӝыны
Соф
конц
медло
адямиослэсь
шорам
паймытӥз
орк
тырмонлы
Быръ
руль
##яськон
тазалыксэс
юанъёслы
редакторез
дворец
Лымы
##тант
кылъёсыз
уггес
тупатъяны
педучилище
Широбокова
метод
##ВД
##сие
лыдӟись
ӧтиз
зыр
юаз
##алляй
эмъюрт
агентстволы
##ЕР
эшт
пиналъёсын
сюлмасько
##аляк
институтын
кафе
##et
##цик
куат
кылъёсызъя
эскерозы
##ательёслэн
граждан
##уме
пӧртэмесь
ёзчиез
литр
Тӥлед
##ностья
Дарали
бизнес
##оника
аръёсын
кылысь
##сьёсты
висъяло
пызь
оскем
ватсэт
кышноез
билет
Скал
##лама
Тӥляд
аппар
государство
Чур
чуп
##няз
дышемын
басьт
воен
писпуос
театрысь
##ельдшер
41
Кай
Куж
Наг
лушк
кырӟам
йылпумъя
кышномуртъёс
премия
повест
сы
ваньмон
нимаське
##ылытэк
Кенеше
рег
смен
улонзэс
быгатоды
кыстӥське
дасяськон
быдэстоно
Ёросысь
##сиосъя
com
Шай
нуизы
крит
иськеме
техникаез
##ёръёс
начар
Удмуртъёс
полици
нылпиез
##ература
Мае
кадр
постанов
Кышно
##ледств
ёзъёс
Глазовын
Волод
коӵыш
каз
##асса
доре
Инд
ветлоно
трен
Бусы
Ошмес
Ниж
##ласянь
##бин
##анты
гожтыса
истори
иське
январь
фронт
Бак
дум
рас
ӵуш
вылымтэ
адск
шедё
быдэстон
Сарапулын
Элина
44
##рем
##никез
городъёсын
120
ӵектӥзы
кылзыны
кызьпу
дек
пась
##аева
монэн
быгатӥсько
вите
урамысь
лыктэмъёс
бан
выст
ис
нян
##оын
##чёт
тэшкыл
коммунальной
Саша
##отехник
##ого
оскытӥз
пайд
ветлӥсько
юанлы
районысь
Куддыръя
56
арам
##иськоно
вуттэмын
Нылаш
азьпалан
юнматыны
интыянъя
##ЕЗ
##ют
гожъясьёс
Миша
шедьтӥ
Мугор
Элькунлэн
композ
Курег
донг
Пия
сект
##тыкай
валасько
##омо
узырлык
аспирант
бюджетысьтыз
больницае
Настя
зӧк
##омын
##роф
адӟо
##едача
Бар
Чеч
Эль
##олком
##льп
##тоном
синм
виск
хозяйствоосын
ӧть
вунэты
професси
Ишматова
Саб
юбиле
инвестициос
сӧр
##ёк
##ӥмы
##инъёс
##унь
Сочи
огъет
ёзчиосыз
Ялан
##вак
##став
мувӧй
лэсьт
лыдъян
люкасько
шараяз
история
авторлэн
воля
усёз
продук
##пон
Сотэк
утиськон
возёно
вазиське
##ицын
##ЫЛ
##озавод
огнам
нап
нуналэн
##ько
Вероника
программае
законъёс
##ИНА
##ttp
##ьӧль
учкиз
Миым
нылпиоссы
Балтач
участок
http
Тук
##шан
усьтэ
валатэк
Борисов
искусствоосъя
кружок
гуртамы
ужрадын
Кызь
Эстониысь
Йӧл
вие
понназ
Огшоры
изъян
##ромо
куан
синкыл
муртэз
эскероно
вайизы
одиг
азинске
Автор
кубист
##ощик
##фаль
кырӟаса
нылпиё
учыръёсты
клубе
январе
курегпу
46
Пот
##ваш
##оратор
Перевощик
костюм
Каб
рев
##аськизы
Аслэсь
ӧнерчи
Толэзь
азьветлӥсь
чидатэк
отдел
Номыр
ужъюрт
гуртэз
палъёс
йыло
вуттӥзы
Перевозчик
зав
мыш
поз
##кр
##АЛ
дышетски
марш
авгус
Кенешын
вазьгес
табыш
лушкаськ
вина
пож
дасял
тыршисько
экскур
анайёс
кужмысь
усточи
Корол
утялтон
Воткаысь
эскере
Ва
##еограф
сютэм
шеде
синъёс
литератураез
филология
задор
Алёна
##раг
лыдъямын
висъяськиз
дасязы
кутс
шаере
пап
##аза
##одыр
кырсь
нылпиосыз
Кинлы
интыосысь
юнматӥз
Эр
гожъяськыны
учкись
##ератор
быдӟал
Атае
наркотик
Княз
вой
##цуз
##ПР
##лыз
пуксё
Алексеевич
сьӧрам
вырись
даурлэн
##ӟа
будӥсь
тыршизы
кудзэ
вылӥын
Коммун
сюлэмыз
##оров
пут
Таос
мылкыдэз
уждунзы
Кач
тар
##ЕН
##кая
Нокин
лыдӟе
кыкетӥзэ
султы
огазеяськонъёслэн
конференция
Китай
эстон
##de
нуналыз
палат
кылдытэ
##ыбырт
Брангуртысь
73
куты
##омем
юртазы
октябре
Оки
пуд
констр
эскериз
президентэз
келямын
Пель
чиль
аръёслы
сюдыны
потоно
Нуназе
пыраклы
биатлон
Золот
чип
##ӧня
##ТЭ
##иден
пуктоно
##ертиф
котыраз
центрысь
луэмзэс
картоф
юнматэм
урокъёс
огдыре
Степан
Милемлы
ГИ
эшез
будэтэм
Тодӥсько
лэзе
Эконом
Кышкыт
чиньы
Украина
Гл
##ъетэз
##роп
семьяен
люкаськемъёс
турист
Екатерин
сыр
##итов
нимъёс
улоназ
малпанзэ
арнялы
ареск
издательство
Бат
Бик
Ксен
нискыл
##ожай
автоном
##тозяз
##астр
куараен
ӝыныез
тэль
Афан
коньдэтысь
##сак
##сыя
висъясько
ӟечлык
йӧтӥз
кариськыны
сись
##ылоз
##осмы
вылон
сэрттыны
агентстволэн
Богдан
Тихонова
Камбарка
Фили
##динов
вутск
поттонъя
##пала
арбериосты
Иське
тӧр
##ерез
быдэсъя
кельтэ
элькунлэн
управлениезлэн
Пусъ
Нациосын
Культурая
48
дырез
Кунгож
##пром
иворъёс
ортчытэмын
мургес
Лена
венгер
Лудор
##проект
Морд
фельдшер
##инэн
##инской
улля
конгрес
потылӥз
общество
вольыт
Нагов
Бод
Март
оз
##ӥллям
адрес
спортзал
факультетын
самолёт
санэ
##лез
луылӥз
гожтӥськ
музон
пичиысен
номырин
дышетэм
вин
##сьмаса
##атов
ужъёссэ
##есьтым
шедьтэм
асьтэос
отӥяз
##це
##каса
##ниг
сиыны
кысконо
кыстӥськиз
дасянъя
Арлыдо
учреждениос
оркестр
Екатеринбург
сен
цех
оглю
##онъёсыз
##азег
куаразэ
общественной
оборуд
##сю
##яды
дырзэ
быг
люказы
нимт
улонлы
кырӟало
кельтӥз
лыдӟыса
кирос
Нырысьсэ
Капчи
Поном
жюри
нар
шах
##арева
Соя
тӥез
гожъяськон
##ектура
Валэк
Самс
кирпич
Сол
сессия
гуртлэн
быдэстэм
##рип
люкаськемын
табань
Раиса
##сомол
сез
##АЗ
##иськемын
улоз
висисьёс
люкамын
милемды
нокытчы
номинациын
Инвожо
Мор
Ӵем
##анг
##акуз
кырыж
вазиськизы
Ах
Ман
Мул
мол
Ӧжыт
##рут
юртъёсты
уть
висъязы
висъяно
фестивалез
валанзэс
бакч
голь
ев
ӧри
##итар
калыке
выжиз
сюлмаськытэ
кужымен
пельпум
эстаф
туган
шӧдске
Векшина
Мер
Шур
##рел
туй
кӧшкем
пиосты
бызьылӥсьёс
Аслаз
Лия
кенер
ли
фрак
##хгал
крезьгурчи
##ехника
Пред
тодосъя
аслэсьтым
калг
пуксиз
Машина
предмет
53
##сий
интыен
Ангел
##ология
малпанъёссэ
ӝутскиз
движ
кагаз
асфаль
висе
йӧтэ
песяна
производ
Котькыӵе
Пияш
##нич
##айм
быдэстӥз
дасесь
Огазе
Крив
Алнашысь
паспорт
дискот
Сл
эфир
##еди
удмуртъёсты
потозы
Нок
##око
страх
йырлы
дасяно
Кыкетӥез
ӵаш
##атэк
быдэстӥзы
##чиосты
сюлмаськон
Нырысетӥез
сентябрь
Свердловск
им
муд
ср
##омп
поттыса
висъет
сиё
Оскисько
медален
сертиф
тор
##сед
кылъёссэ
##тэмен
интызэ
Соосын
вутто
управление
Перв
зооп
Сибир
47
Школ
рей
юромо
##ьевич
юрттӥсь
кырм
сюрессэ
##спӧртэм
шӧдэ
лыдӟиськон
лачак
Наговицын
фон
##ые
##емъя
учырез
##ацилэн
пункт
Пумиськ
Одно
54
суп
тырши
творческой
секретарез
Вахрушев
Чылк
##сов
тросаз
пӧрам
потаны
##ление
вайы
программаос
вакытлы
республикаысь
Шарканысь
тупатэмын
Кизили
Бул
Кож
мынозы
кырӟанъя
сюлэмзэ
##ститу
фермаын
пурысь
видео
Пӧсь
комната
тыбыр
##ъёстӥ
##ера
удмуртлыкез
вордӥ
коми
вераме
##потреб
##грамма
кариськыса
##тысалзы
гожтэтъёс
автобу
малпамъя
гумыос
Пӧлазы
сӧз
##ше
верамзыя
Берпуметӥ
Свято
Леком
Тимоф
бадзым
49
васьк
чаляк
##галась
ваньмаз
##ниын
центрлэн
шудӥсь
утиськонъя
Ходыр
отӥ
уте
Проект
07
Юм
ску
верай
ужрадъёсты
Ижкаре
кыдатон
вератэк
ёзэтэзлэн
пуньы
u0441
Атыкай
Театр
##алин
##аки
##ошур
вуылӥ
мульт
дырзэс
кылдытӥзы
Москв
администрация
утялтыны
текст
гыл
каремын
пичигес
пумиськылӥз
премьер
больницаын
шӧдтэк
зоотехник
драмат
футбол
вакчияк
мож
ӵын
##бот
##айёс
пӧз
пӧлазы
адямиен
Соослэсь
ӝутӥзы
учебник
Ксения
Ангелина
Уча
мем
пизы
карод
дунын
мынӥзы
Уждун
Алина
апрель
люкаса
Лудорвай
дяд
##тура
огмес
городлэн
пыдку
турн
бусые
u043d
Дышетскон
шуысал
кылмес
##пусэз
воштӥське
##ялоз
ожын
шаертодонъя
пичияк
лем
##кон
##осысь
##омиз
улысь
мукетаз
куризы
вакытэз
палэназ
##ительной
фестивальын
Петербургысь
##таль
##лась
##инск
шудӥзы
лэсьтӥське
паллян
пыӵамын
Кивалтӥсь
эксперт
технологиос
Национальной
Сомын
Чир
Чел
дыд
маза
##тус
##тэмъя
йырв
Александровна
тунсыкъяськ
комитетлэн
съезд
эмес
##пор
##ӥм
куин
##арова
сюрем
пуксе
удысъёсын
2018
косӥз
Ужрадэз
кулэсмиз
Сиён
Юнме
Нюлэс
чутрак
курегпуз
августэ
Кв
Рай
фир
##яез
##12
будӥзы
степ
Туп
кошкоз
садъёсын
Эктон
Игн
Восто
кой
ль
сим
##сьтэм
##анлы
##инина
##истем
быгатӥське
##анилэн
дырто
пичиос
Уст
Юля
##ӧн
удмуртъёслэсь
спас
театре
Гердлэн
Федерациысь
Быръён
Сай
Сим
Цент
##ОВА
гуртазы
ужрадлы
Владимирович
вазиськоно
иворъёсты
чузъяськизы
будэмын
Широбоков
президент
тупало
сиёнъёс
бертыса
лэсьтӥськонъя
архитектура
Дэмен
боды
##казэ
улӥськом
2002
вакытъёсы
номыре
мытӥз
шоркараз
Шумпотымон
Ред
ты
фран
##орус
кулэст
##ейн
лыдзэс
ӝутэм
лыктыса
##емезлы
утчано
Толалтэ
Семёнова
Сӥзьыл
Быга
Загребин
Юб
##меды
валтӥсез
бухгал
возисько
дышетӥзы
кыскиз
Стан
копей
вузкарон
оломар
Покчи
Ию
Поч
кыльыны
портэм
лэсьтонъя
ӟечлыкез
югды
урожай
уксёез
концертъёс
кузьымъёсын
##охр
Ноябрь
Кут
пыриськоз
##икаен
ӝутӥз
Элькунамы
дышетӥсьёслы
##ица
янгыше
Тӧл
бр
юонъёс
##еммы
##ытоз
##зэз
сьӧразы
дӥс
группаос
баян
Бюдж
див
код
сир
##ьевна
##ми
шудӥз
ивортон
уськы
Новгород
кайгу
Янаул
чырты
Георг
диктант
63
Др
Суд
лоп
рок
##серт
##ущ
##ца
юрттозы
Ижмаш
Ужан
Нылъёс
утчало
ӧдъя
мугорез
буёло
внук
Сомында
##гот
##МИ
шуон
полэс
пичиен
кошки
Ужаны
яратыса
2004
Вераськон
татчыозь
исполком
МВД
храм
##ациос
мумиз
быдтыны
##палэн
азязы
бордазы
куинетӥез
куашказ
огкылысь
капитал
власть
систем
##РОС
##ЫН
##тонэн
поттоно
тупаз
машин
шумпотэ
шумпотымон
Васильева
синпель
Бад
Маша
йыбырт
ыст
##шуд
басьтӥськизы
возьыт
кырӟазы
ортчыто
тодматскизы
партия
фондлэн
Нау
востэм
##ТИ
келян
##ужан
Владык
бюджетэз
кышноос
Уксё
выпуск
Эмилия
Песянай
песяй
буква
Кос
Кис
Эх
Кумач
учкы
сиёнэз
вожвылъяськонэ
этап
мугез
модель
даурт
59
Вӧз
Тер
##олик
##озэс
##яськыса
радъяло
колон
эмчиос
амалэз
кариськизы
нуллыны
кышкытлыклэсь
басма
Юри
быдӟым
нылпиослэсь
ӧтё
Ермол
француз
Георгий
51
шыд
##скыса
тӥян
муген
арбери
ветеранъёслэн
Конкурс
Ос
реш
##ба
##амзы
##ысез
кепыр
##сэр
ортчыло
соосыз
##ӥськоды
##абыр
Малпан
экономикая
патер
шобырт
Биг
эп
эктонъя
ивортӥзы
нокинэ
район
Эксэй
йыртэмасьёс
Министр
шек
##вен
##ӟег
##тэр
тырм
гожтӥ
Конститу
коркаез
Калыкъёслэн
ӝожтӥськ
судэ
тӧролэн
Иднак
Зай
##эным
##гач
Таосыз
малпазы
Соловьев
шӧдӥсько
бабай
учрежден
Сарамат
Сюлмаськ
зур
##le
вылам
сямыз
Куара
пыртэм
Маргар
##тӥсьёсыз
историяя
58
ширт
юало
юонэн
##овен
##ыдӟа
##итара
вылонын
##ике
поныса
пыртон
Петрова
Воргоронъёс
юбилейзэ
Завод
##фин
##ска
##арев
басьтӥм
палъёсаз
акыль
передача
Брангурт
ЁРОС
ӝег
##лер
кырз
усьтэм
оскемын
кельшо
азинтонлы
сӥзиз
Генн
судья
Татарстан
ветлыса
Пенсиосъя
##urt
тышкаськ
52
Туг
кары
##исьёслэсь
Тросгес
паськытгес
техникая
список
Ӵемысь
##гр
##ДД
интыязы
пумтэм
кивалт
лыдъяло
вӧзысь
Сизьым
нюръяськонъя
Римма
##ӧнья
Кошк
Талы
гожтоно
кышет
пыриськись
семьязы
служ
нулло
Финляндиысь
передач
Кумачёва
Трон
Фото
атас
нен
рын
чош
шимес
##ОВ
пичиез
сюлэмез
командир
центре
бичаны
премиен
Музей
произведен
Филипп
лав
мыд
##оысь
##дылы
##ёж
##тозавод
##ипед
предприятиосын
дӥсен
пайми
школаосысь
шудӥсьёс
конструктор
Геннадь
Лели
гуж
утӥз
##кан
##ода
пулэсь
##аниез
кельтэм
дышетӥсьёслэн
дугдӥз
Ёросын
Красиль
ворттыл
тодматӥзы
блог
скульп
Шв
нэнэ
финал
##тош
пумиськыны
кылбурчиос
лэзизы
лэзьы
гимназиын
Писательёслэн
лыз
##ёслэсь
##лось
лэсьты
будэтӥзы
садъёс
ант
бызьыса
бызьылыны
Тодос
путёв
Тӧдьы
сет
##сён
##мак
ужъёсын
##яськем
сюлмаськытӥсь
пыртӥзы
азинскыны
шӧдыса
эрико
эстрад
бесерман
бю
тодмат
тупен
лыдӟиськыны
сюлмаськоно
данэз
толлы
скаллы
u0430
материалъёс
шайвыл
памятник
Вам
вз
правлен
чук
##едь
учё
медам
мукетъёс
дышетскыкуз
шуръёс
Коми
ведра
июле
Клуб
##ицейской
Куасэн
профессион
Мордов
юэм
ӝик
##дэр
##ӵезэ
##овъёс
валанъёс
поннам
пӧся
басьтӥсько
улонлэсь
кутсконын
##нике
ваты
сюлмыз
умойтэм
процен
будэтӥз
коркась
дыртэ
ГИБ
кутӥсько
нац
книгаосты
посел
институтысь
лулчеберетэз
сӧзнэ
Юбил
Маргарита
Чу
дух
##ыжы
ӵоша
ӝуась
командаез
##ных
возьмаса
Борд
Вени
450
фото
##ду
##ышк
##куш
ворд
190
##ъёссыя
силос
Дж
КЫЛ
как
##мам
##едлы
Алексеевна
коллек
котькинлэсь
ансамбльёс
аслыд
азьпала
##вакытэ
ГИБДД
57
ишк
##утэн
##осбур
вордыны
палъёсын
мукетъёссэ
дышетӥсез
##ежит
Зэмос
Черк
##вӧт
быдэсъяны
Яратон
чуръёс
Наташа
куашкам
##езиден
лаборатор
позыр
Красильников
Вун
улоно
улмо
##томы
вормы
тодытэк
кыре
йӧна
2003
Азьлань
институтлэн
транспортъя
Вормонлы
нокытын
университетэ
##потребнадзор
68
II
##орма
кыллэн
поттӥсь
лэсьтӥсько
##ние
султӥз
метре
инвожо
Пересь
сертифик
дол
##хин
##ури
пумитан
яратӥсьёс
август
лулӟ
нылашез
потэмъёс
тӥрлыкез
ульчаын
быгатэмзэс
радъянъя
площадьын
совхоз
бухгалтер
Муг
гын
азинлыко
выризы
Кинлэн
вакытысь
жингыр
Думае
Савель
интернат
64
Тазэ
##ылозы
##акет
кельт
тӥя
пыриськон
люкан
маде
туртто
Пугач
Ушаков
Сараматова
##нос
##тэсь
##налэсь
кырӟанъёсын
шараяны
бусыын
Республикаысьтымы
лагерьын
келяз
Исп
##чка
##алимов
##иля
##инаез
данак
песята
Кузёбай
Шутэтскон
пом
##дмы
дышем
нылзы
малпамын
тупатск
семьялы
учыръёсы
студентъёслэн
Нимаз
Ван
##зи
##рот
##тэй
##асен
огзылэсь
утиз
тодмет
##анъёсъя
##ипенд
шумпото
ведом
бигеръёс
Трофим
драматург
Ага
ӝытэ
##арын
##урын
##онозь
школаосы
шӧдон
кыскись
##ница
адӟытонъёс
бызьылон
форма
фронтэ
демограф
Нижний
72
74
Арысь
улонзы
кыед
кивалтӥсе
Валя
будэтонъя
вазиськон
кылӥське
Сун
Чоры
пизэ
##за
##нойёс
кыскисьёс
институтэ
пертчыны
оборон
Тырш
сюлэмшугъяськ
Хохр
##има
##ОО
##екс
учкон
эскеронъя
вузъёс
ӧтемын
возьматоз
кузёос
ыштон
косэм
##емзыя
Никита
Да
Урам
Ханты
пласт
##инский
огсыр
сётӥ
Роспотребнадзор
пиналлы
быризы
шедьтэмын
маял
люкиськ
вормись
кузьмазы
часлы
спектакл
Афган
Уноез
ёзэзлэн
Елиз
Володя
Аня
Мӧнья
Пил
род
##калэн
##ыли
##яськы
мынӥсько
быдэсъян
сакыр
картэ
тазалыксэ
уждунэз
вӧзаз
берытске
училищеын
жагез
башк
вар
ӵып
ёросъёсы
вордэм
шедьтоно
Ваньмон
##есяк
кизэ
Надя
сётъязы
мама
марафон
Бодья
Ваня
ен
##ЁС
ужлэсь
##истэз
асьмеды
шӧды
Аръёс
историзэ
ансамбле
##союз
u0442
степен
Редак
Вениамин
Жинг
жиль
онер
##at
ужамын
тыриськон
##артаки
кошкы
u043e
библиоте
Мукетъёсыз
ивортэмезъя
Паймоно
лауреат
гитара
чоже
##ящ
##чник
кыли
кылосбур
вуись
вуылэ
музы
суй
сайтаз
салам
Мусалимов
аппарат
Ви
Не
Сал
дет
са
ӝаж
##ӧж
##ЛЬ
кылӥ
тыре
утё
курсын
пиль
синмын
поли
##агн
тыршемез
садысь
киужъёсъя
Тылпу
чемпионат
кӧшкемыт
##енса
##скытэк
Удмуртии
Инмарлэсь
иськемез
ульчаысь
револю
Мӧз
Эт
мот
манд
дышетоно
радъяз
гажано
газетэ
Общ
67
Гыр
виз
валаз
туд
##айнер
милесьтым
кенешонын
быръё
Малых
интыяськиз
солдатъёс
Шумпотӥсько
диссерт
##устри
выльдэмын
82
язы
музэн
кивалтэм
вице
##дӥсько
чеберлыко
ӧтён
бертыны
куректон
часть
художник
Люкаськем
ватск
##дыз
##сеныз
кутскыны
комсомол
пельнянь
волейб
пуштросэз
керӟег
Воргорон
Европаысь
900
Вин
Прок
##пырт
##ье
##ылоно
дыры
##елли
усьтыса
Александра
секытъёсты
тусб
университетлэн
посёлок
маршрут
Иос
##цина
##был
##ww
##ъёстэс
тодӥз
шудыса
##ипов
Быдэ
депутатъёслэн
Асьтэ
шудонъёсы
u0440
Родина
Лэсьтӥськ
Коӵыш
Афанась
Ваз
Ради
ӟег
##жан
##уф
##етон
собор
ужаськом
утёно
ӟечен
##ологияя
ӧте
вуэмъёс
тусыз
издан
вотэ
сэзь
www
Дом
##акум
пукисьёс
радъяськ
дышетсконо
пичиесь
аресысен
вузан
будэтэ
Люк
##ылӥськом
тырмонэз
Евгения
роман
Журналист
пединститут
лес
суг
Кули
радъясько
бераз
даурысь
пачыл
Раз
сылӥз
##намы
##эп
##мот
##оваен
радъясь
Россие
муртъёсты
шедьыны
суредасьёс
кылдытоно
вордӥськемын
азинскон
шӧдӥськиз
факультетэ
Григорьев
нимтул
кылыз
кылле
таосыз
конечно
потало
гожтӥзы
пиналъёсыз
стар
возьматӥсь
Элькунов
дышетӥсьёсты
чидан
кужмогес
висёнъёс
журналистикая
Ильич
##акте
нюлэскы
производство
Ме
Шар
каронъя
##ький
учкизы
тыршиськом
кельто
огазеяськонэн
Муско
##ушка
Короб
кылдыто
скалъёс
турттэ
медициная
Софья
Кыд
Тынад
##калы
##изылэн
##адӟ
гожъяськись
ортчытъяны
луонлыксы
синмаськыса
ӟечкыланы
арганэн
депутатэз
##быш
##ёссы
##ыкыс
кыллэсь
уга
кутским
##палан
секытэз
шӧдыны
Аркад
газетысь
берыктэм
улосвылын
мунчо
мылкыдме
Лулч
Леб
Мол
го
се
##нуналэ
##ША
##ъяськонэз
дунъя
дунъяло
##елос
Интер
капка
нылкышноослэн
малпаськы
дышетсконниос
мугоро
луысалзы
кыдёкысь
азьмуртэз
ведомство
Парт
аэ
##къёс
##il
##ослав
куамын
##ометр
вуим
ёросамы
каръёсын
##оваез
радъязы
будоз
Уже
тодматскиз
шӧдӥськы
Станислав
Пост
##рин
луод
кеськ
туг
ӧвӧлзэ
##лексы
шедьы
ӵекто
малпаське
шудонъя
паймисько
сэрттон
Тодматск
шокч
Григорьевич
кудӟытӥсь
зоопарк
Аркадий
Уф
##орм
кылку
кыллю
##сьёслы
курисько
учки
муртлэсь
экран
пумита
округысь
февраль
воспитательёс
Вамыш
мен
ӵог
интызы
Ноку
нимыныз
кутскемын
кудаз
Президиум
предприятилэн
Шудон
Бабай
матэгес
санатор
зан
льӧль
ӵушк
##зян
##ынэсь
##инка
##тӥр
шуы
##иосыз
утёнлы
уксёен
иворез
куараос
бырйиз
тэт
лагере
ӵектосэз
Окс
Дав
Флор
диал
##лег
аръёссэ
шуод
нылъёсты
поэт
пуктыса
шӧмо
Конферен
малпанъёссэс
праздникез
доход
дэмлаз
паськыта
пуксьыса
чечы
гольык
архитектурая
Игра
Элект
гиж
еги
##еради
тырыса
пуктозы
сыӵеос
шӧдӥ
##елетэз
эшъёсыныз
кенак
Бускель
меш
##шет
улонэн
##иналэсь
прор
##естор
##лэзёзь
агро
заводлэн
алнаш
62
Воз
Лев
пуктӥсько
улӥсез
городъёсысь
арняяз
пыртӥз
гектарысь
округын
промышленность
ульчаос
пайдалык
Лебед
Сяськ
др
##ГА
##атонъя
ужме
вуон
вуиллям
огин
лэсьтӥ
улонлэн
гожтон
усьтӥське
Владислав
пыӵаны
вунэто
ватсаз
##ецъёс
Белорус
бызе
ёзэныз
Дано
Шӧк
вылез
сюж
укш
кыскизы
лыдӟиз
кылбуръёссэ
артысь
ыштонъёс
Комп
Валерия
небӟ
Чайковскийлэн
Захаров
Инкуазь
Иосиф
##ынэсьтыд
Боль
##бег
##лыксэс
вераськем
лыктоз
кошкон
пумитало
сиёнэн
министрлэсь
тодӥськоды
Прокур
##all
секунд
Ложкин
физкультурая
эмеспи
##кушман
КИ
Пун
##гаос
адӟиськы
ваёно
Куноос
пумиськыло
ӵектонъёс
висёнъёсын
комиссиос
##ъялля
училищее
механикая
промышленностья
##рослав
##аськоно
##ьяр
кытӥ
адӟон
висъяськ
кельты
пыктос
##тыкуз
мӧйыос
Митрей
картофка
нал
луэме
амалъёсын
кысӥсьёс
Яратоно
мыныса
вынъёс
делегат
каникул
офиц
маскар
степенё
Вазь
изьы
##далаез
##is
##ъёсысьтыз
вылтус
ортчытэ
гожъяськисьёс
газетлы
зэмен
Вася
кыстӥсько
тӧроезлэсь
ятыргес
ыстӥзы
1980
Максимов
сборно
воспитатель
ООО
лент
столов
улӥмы
киям
Азьмурт
лулысь
агре
Можгаын
Дэбесысь
ӟечкылаз
емышез
нуллэ
мозмытск
стадион
Павлович
веськ
ЁРОСЫСЬ
Лулчеберет
Берт
Ед
Поп
нып
##ёш
##тын
##лесь
нов
луисько
тупан
##аниен
киыныз
##обще
##куруз
кыстӥськоз
##гуртэ
вунонтэм
компенса
Анаез
удалты
общежит
врачъёс
Элысь
кылӥськиз
Кезь
##енелик
Удмуртиез
нимъёссы
адӟизы
синъёсыз
стипенд
##аниысь
##абри
вазен
Стрел
артистка
телеради
Финн
Синмаськ
автомат
Фёдорова
Конкурсэ
толэзяз
Кечол
##рорай
Дум
мог
раб
##быдӟа
##ософ
##рту
##тӥсе
##иосы
##аськемын
##ропорт
интыямын
радъяно
быгатӥ
юнгес
возьматэм
заказ
Милемыз
чыры
привив
Универс
Чут
мадь
##юк
##амзэ
##лоп
быдтэмын
лэсьтозы
Ижст
удысэн
##ыртэ
арессэ
серемес
ӧвӧлэн
Ходырев
США
##овалы
прист
пиналъёслэсь
стаж
семьяосын
##ологъёс
кисьт
факультетэз
серекъяса
залын
атлет
Касимов
выстав
Шӧкыч
78
Ап
соя
##овать
##иськисьёс
##ектэм
##уда
курд
спортэз
кизёно
Кезысь
туспуктэмъёс
умоятон
дунтэмгес
сётскы
Гажано
Савельев
тят
шыкыс
##рен
##амысь
инбам
быгатӥськоды
чаклан
спартаки
шумпоттэ
управлениысь
медальёс
гырон
Рябинина
Гид
ӵект
##те
##изыв
дунъязы
кизьыны
куноя
азьланьтӥське
минутэ
округъя
чабей
##сульт
Женя
куанер
Иднакар
аку
зас
Ӝӧк
##уар
##ИК
тупал
##исесь
##икаын
огазеяськонысь
верамез
центръёс
ӝытазе
мертч
Пумиськон
##ефт
курсъёс
микрорай
Плот
цирк
Лук
Са
Чип
пят
ӟазег
##омай
вылысен
дырзы
быж
азьтэм
тыршыса
2001
председ
черкогуртэ
нюръяськыны
институтэз
подъезд
талань
Дима
аспирантура
фирма
##лесьтыд
Ля
Мурт
бус
мор
сиз
ёс
##инин
арнян
верасал
тыриськонъёс
##ысьтыды
Куар
лэзиз
кусыпъёсты
конкурсъёс
академилэн
Полина
Эстониын
корреспондент
корреспондентэз
Еф
Нор
Печ
вазе
весяк
уе
шобр
##евой
приз
тодматски
Кудӥз
ветлӥмы
Улосвыл
эстафет
Первомай
76
Следств
##иськи
огазеяськонын
турлы
атайтэк
берыктӥз
Алнашын
Ярано
Шоркар
кышкатэк
сузэрез
гурезьёс
композитор
Буш
##кевич
##раш
дуннев
дышетскизы
воштӥз
кинъёс
автозавод
ортчытоно
классъем
шараязы
кожалод
Программа
ӝутскем
кышкаса
сюлэмы
шал
Ӵуж
##ьыр
##ia
вуын
юрттӥськ
басьтӥмы
сётӥсько
##ирург
кышкаськ
теп
мач
##пуксён
##илищ
вамыштӥз
Егитъёсын
ышиз
тодӥськом
Пушкин
Бакча
Кезьыт
66
аск
вия
нор
##енымы
##ские
кылынызы
##ожен
арынлэсь
вайисько
черке
##нерг
Горький
чакламъя
рынок
нацпроект
Единая
Ярослав
альб
генер
зем
##лтош
кутӥське
##сьёслэн
вералэ
пырисьёс
тыронъёс
сётӥськы
ворек
нимаськись
указ
сяме
ӟечсэ
шедьтон
гажало
ураме
1991
предприятиослэн
Пиосмурт
Иворъёсъя
77
ЛЮ
Мо
чӧл
тырмем
пуктыл
быры
Анис
люкало
нуэм
кивалтӥсьёсты
кусыпъёсъя
u0438
1992
культуралы
Федерал
котыртӥ
Гаврилов
книгазэ
ректор
танк
##ысеныз
гожто
ӝуа
кельтӥзы
кылдытӥсь
люкаськозы
ӵектэмын
луонлыкез
заводэ
эрикрад
репет
тудву
Бек
юыса
##овор
арак
карисьёсты
поттӥсьёс
чеберез
Ижкарлэн
##ракт
висёнэз
паймытӥзы
Кивалтӥсьёс
технологиосты
копак
Нуналлы
республикамылэн
Паймымон
телерадиок
Гуд
Зал
боры
##ТР
##яськись
потазы
стат
маиз
кемалы
ӵектэм
куронъёсъя
мӧзм
дизайнер
Ижсталь
Кен
дӥсьёс
мит
кариське
кунъёсысь
йырын
быръёнъёсы
Нылпиосты
Данилов
Оскон
Дарья
лицей
эколог
##ания
##льы
Россилэсь
будыны
кунъёсын
йыркур
оскыны
Владимировна
чузъяське
Буй
Роди
##пансер
udmurt
Венгриысь
Лӧп
плен
юдэс
##ви
##арня
паймем
справ
нуон
кылбуръёсыз
Улысь
машинаез
лэзьыны
##УРТ
кубиста
Нокыӵе
Дась
##ъёстэк
##ъялэ
##иклин
сюре
интыысьтыз
юрттоно
##исьёсыз
нуналмысь
пумитам
##уша
Элькунысьтымы
дасяськыны
акция
люкеты
огкылэ
##ery
азьлане
Молод
канал
мись
##тык
ёросысьтымы
аслад
ӟечлыко
класси
поттонэз
академиысь
губи
тузӥ
прокуратура
Кызьпу
служить
Он
кутозы
тӥзэ
Удмуртлык
шедён
вераськись
семьяязы
##мень
воргоронэз
услов
1998
Республикая
##ъялляз
июнь
Кривил
Луч
Шт
он
##ски
##ского
##адэ
дыши
##ейёс
огазея
семьяе
сяменыз
Ужпум
выжыез
визьм
Сюр
Аслам
##ужба
Света
Ижевскысь
пужым
очер
йырсиё
ненег
Губ
Дух
шар
##ых
##енг
луло
##таб
Калыклы
акционер
##уллина
пияшез
Прох
тырмонзэ
Григорьевна
бинял
фамили
vk
Пӧр
Яг
##дар
##КЕТ
ответ
умме
##ӥське
##риот
Улын
кышномуртлэн
дояр
Команд
Кузьма
Донды
КЫЛЗ
сертификат
тупанкыл
велос
гон
нер
рем
резиден
сельс
##ии
##унал
пуй
интызэс
##идж
дунъёсты
югдурысь
амалтэк
Вершин
##аяв
пенсия
Адямилэн
Балезиноысь
июль
котькытчы
Глазкарысь
дизайн
Аслэсьтыз
льгот
До
Усь
октябрь
##пиос
##кыш
##овар
кулэлыкез
лыдпусэз
радлык
быгатӥськом
вакцина
эскерись
возиз
##узин
лыдӟисько
люкаськылӥз
хозяйствоез
часэ
луэмын
геройёс
шузи
Депутатъёс
КЫЛЗОНО
дыды
кли
флаг
##ъёз
##град
кылы
нуналэзлы
##колледж
милемын
полицейской
муртъёслы
ярмар
ӧтем
Инмаре
шулдыръяськонъёс
Виталь
Воткаын
кулэсме
философ
академиын
кышкало
вожвылъяськонын
ӝегатскытэк
Альбина
Елизав
Элькуновидение
ФА
юз
кутӥсь
##атой
ужамы
шуылӥзы
вылысьтыз
##ного
Удмуртилы
кенешонъёс
пӧрм
вормизы
дышетскисьёслы
чузъяськиз
1941
лауреатэз
Ветер
посёло
Фомин
Питкевич
Короленко
in
ЖК
Пат
Поль
трам
##док
##ылымтэ
шуса
дунн
##ельхоз
Россиен
воштӥськон
лыктӥ
возизы
кылдозы
##ость
огазеяськонъёсын
пиослэн
##ценз
куаразэс
Республикаын
премилэн
Белос
армиын
Удыс
Кырӟан
Петербургын
музее
юмш
Князев
асфальт
ВИ
##ёмы
##иськозы
удмуртъёслы
кунлэн
ужрадъёсын
асьмелэсь
яраты
##цияя
Герой
быръе
дугдӥзы
дӥсьты
лыдпусъёсты
кулон
Беломорскихлэн
озь
##тим
##кий
##ТУ
кукуруз
##аськоз
мус
муск
карозы
пумисько
тодозы
усьы
быгатом
эскерем
пыӵаз
законъя
аръёсаз
дышетскисьёслэн
u0435
куронъёссэ
люкетэ
кылдытэтъёслэн
Урод
тракторист
жалятэк
Библиот
Елизавета
Глав
гал
географ
##пун
##ёд
тырмемын
вордо
откр
огазеяськонэ
Марк
культураен
ужамзэ
180
гектарысьтыз
авторез
вӧсяськон
##онтакте
Тарас
86
без
сиськон
##манов
шуиськом
юрттӥсьёс
нуналозь
##окс
сюлмаськыны
хозяйствоослы
берто
дышетсконзэ
##ибор
ансамбльлэн
Николаев
Коллектив
##ъяллязы
дипломен
Аксак
площадка
кенешоназ
Ватс
ваньзэсты
пособие
Перевощиков
акушер
ЖКХ
Батыр
Вир
Утч
лин
юонъёсты
##ди
##тъёс
##тись
##эзлэсь
сюбег
##икова
усьтӥськ
осконэз
##аниын
паймыт
##ковник
кельтэмын
хозяйствоысь
валанзэ
вожвылъяськонъёс
атайёссы
##тыкузы
луонтэм
ваньбурез
тӧлӟ
ожгарчиос
грамотаосын
Гаврил
азьланезлы
сенаж
Белослуд
Фор
##сям
##АССР
сот
лыктозы
киб
авто
учырын
Гуртэ
Городын
Воткинск
Историяя
Кан
Лымшор
Пон
Пос
Пант
Тел
всё
мото
##луга
##un
##енников
пыремын
хозяйстволэн
пыртӥ
огезлэн
султыса
Анайлэн
очко
Тӥледлы
Чечня
Афганист
веш
выныз
##um
##ӧляк
каргуртын
##ельной
тодматон
ӟечлыксэ
сюлмо
Аркадь
вузало
толэзьысен
утчан
гажа
султыны
гуртоослы
синпелетэз
ушъя
Пумит
ӧсъёссэ
Нылкышноос
Чорыг
Тэ
сн
##еез
##ёво
##емп
быдтэм
##ысьтыд
России
егитъёслэсь
вераськы
лыктӥллям
ужпумъя
лыдӟи
уйвӧт
шудонъёсты
редакцие
дырты
##якова
организа
аскивал
бат
шоф
##дяд
##ещ
##нозэ
##ытоно
вуимы
##куж
сюрсэз
юрттӥсез
кутсконо
учкисьёслы
быгатоно
Элькунын
Тодам
тазалыксы
1994
шудонъёслы
Семёнович
Шудо
библиотекарь
военком
тӧрлык
агрегат
альбом
Баг
Наз
жан
чет
кылл
кылемез
нылъёслы
ортчемын
##имова
прик
дурысь
Кӧс
сайк
Казах
экспед
##серв
##ледователь
сыче
Центр
Прокоп
При
сезь
юос
ӝок
гожъясь
Алексеев
кылдыны
вӧлмемын
малпаськыса
ортчемъя
юанъёсын
кылбурчилэн
мыныку
Артём
Библи
оборудование
##илищно
Ис
бек
##съёс
##ерея
##лоб
ёрослэсь
кулэтэм
калыкъёсты
ИжГ
воштӥськы
ави
музъеме
Крым
сайка
тупатэм
ушъяськыны
Котькыт
орденэн
азьмынӥсь
Федот
Индустри
дискотека
Оксана
##кужым
69
97
Вок
Мен
гом
куак
##скизы
сопал
шуылӥз
##евер
поликлин
##аосыз
нылпилы
будэтӥсь
книгае
книгаосын
ужамзэс
мугорзэс
Чернова
урокъёсты
басс
будосъёс
Германиысь
Смирнов
Казане
Чылкыт
ду
юрист
##дала
##иан
##атоз
##ыныды
сюсь
тодоно
коньдонзэс
яраз
Муш
ортчытъяло
Верх
кыстӥськ
Тодон
шарая
студентъёсты
u044b
Пенсие
курытсэ
Аркаш
Чутыр
61
Лоб
Раф
бо
заг
ка
Ӝу
ноябрь
##адим
##овлэсь
басьтӥсь
##онъёссэ
##кетэз
##его
Отеч
##ости
министерствое
законэ
кузпалы
u043b
дэремъёс
Учкисьёс
объектъёс
мо
##ырес
##арёв
валэн
##сэп
##уды
бырт
быдтӥз
манетэз
##монэз
##умын
эктонъёс
сюлмы
Мынэсьтым
геро
малпаськом
##лысал
фестивальлэн
Карели
конкурсъёсы
аслэсьтыд
Николаева
тодӥське
печатья
нуллӥсь
тырмонэзлы
кандидатъёс
##ялозы
Гурезь
71
Ым
граф
долл
##икалы
##чир
пукы
##ъёсызлэсь
пыриськыса
ӝуто
##егжан
Туй
##ыртӥз
классысен
##ылэме
косӥзы
##игар
Петя
ветлӥм
телевиден
ӧвӧлэз
куатетӥ
лемтэй
Дани
Как
чи
##выр
##де
##тӧд
##яв
##ёссэс
##сион
нуналзы
кышкал
кышкат
ӝутэ
##ваос
дышетӥсе
лыдӟо
тонэн
1995
Вылегжан
кубок
бергало
эркын
эмъюрттэт
эштосын
##dex
УАССР
юртсы
сётӥсьёс
утёз
куронэз
кырӟаз
йыре
кенешыса
журналлэн
малпанэн
кивалтӥсьёсыз
командаен
шумпотто
улосвылъёсысь
мугорыз
1999
1945
Туспуктэмъёсыз
Степанова
Кузнецова
суретъёсты
Костя
##лыса
##аськисьёс
##ейт
##ниысь
быремын
вискы
бертӥзы
##аямы
машинаосты
бичам
администрациын
ӟечкылан
мыч
умоесь
Анатольевич
дасяллям
##финоген
спартакиад
коф
ӟенелик
##пке
##егор
##фут
##анн
##ива
##цилэсь
пукисько
ползэ
Анфиноген
люкаськыса
ӵектэ
вунэтоно
малпаськомы
Леонть
участковой
мараф
Тюмень
Сувор
повесть
кыллюкам
Весь
НИ
Япон
алама
заяв
юо
##os
##скет
огмылы
адз
ёрослы
басьтӥське
преп
йырез
шаермы
пумиськонэ
кивалтӥсьлы
тросэзлэн
тусо
сузь
конкурслэн
ульчае
гимназиысь
олокӧня
киязы
Ӵуказеяз
приём
Башкириысь
научно
Батуев
башкир
Док
##быр
валамтэ
пӧлысьтызы
кенешизы
эмчи
дугдыт
службалэн
кылдэмез
ӟечкылазы
бызиз
Башкортостан
##центр
Шӧдӥськ
Предприят
дунневыл
Сӥз
лым
чинов
##нической
##гин
тусь
газетъёс
##ажен
толэзьлэн
депутатъёсты
услуга
спортсменъёсты
районын
профсоюз
шулдыртӥзы
парламентлэн
шузимы
возьдаськ
Кулакова
компания
Ойдолэ
Коробей
Кыдё
аэропорт
gall
##мер
##алай
##арх
##тэмзэс
адске
##ево
##ёнэз
удобр
лыдъяны
Огкыл
Ужасьёс
пушты
пушкысь
кеньыр
копейка
Виноград
Думалэн
Казахст
Бӧр
##елэсь
##ниосын
##est
##ag
##ӥсез
##СК
##етын
потӥсько
сётӥськоз
призыв
эшъёссэ
киню
тунсыкозэ
##тозям
Мух
суредэз
Волкова
азьланьын
колхозэ
Самой
ӵуказеяз
ёзэтлэн
Матвеев
интелли
занят
gallery
83
Иса
Сидор
Тямыс
зв
кра
##ерв
гожъяз
выжыоссы
##етрадь
Одӥгаз
малпаськоно
дышетӥсьлэн
опыт
Петыр
йылолъёс
дырызлэсь
кичӧлтон
чилек
пыдкутч
ЛЮКЕТ
96
тюр
##ЕВА
##еменыз
поэз
басьтӥськыны
##онъёслэн
ток
Куать
##выллем
##аослы
нылпиоссэс
вырисько
ивортод
Дэбесын
Спект
правил
лэсьтӥськисьёс
операция
кылзыса
Лекомцев
куинез
доллар
шаль
##лон
##бир
сюры
малпамы
кутскиллям
през
йылпумъяй
берыктэмын
Эшъёс
кужмоосыз
пенс
категор
морд
##мент
кылёзы
##истэ
быдтэ
пиналъёссы
йырзэс
корр
короб
Ужъя
черлам
вуттон
##ортӥ
луэменыз
быгатомы
сайкыт
оператор
мастерской
Нылпиослы
Выжы
Иер
##лап
##яна
##II
интыям
кутскимы
кыче
будӥ
усьтозы
будэтоно
Выльдӥськ
Инмарез
ӝогак
пӧйшуръёс
дугдылон
Миронов
Юбилей
Гудыр
Опер
Урок
асэн
зеч
##раз
##баев
##КС
##осъёс
шуоз
кылыны
Соци
тӥлесьтыд
##икез
басьтонлы
вераськиськом
Миш
кивалтӥсьёсын
мугорзэ
лекциос
Самара
Спортсмен
вуымтэос
поселенилэн
89
Сак
Шара
уроб
Ӵыжы
##ЪЯ
##тыв
##ардон
##амет
луымтэ
##кашур
ваньзылы
##яськизы
наград
Куш
удысъёсъя
##ьӧм
кунамы
ужасьёсын
малпанъёсыз
туссэ
ансамблен
праздникъёс
документъёсты
Ильин
Быгат
ворттылыны
шобыр
бригадир
сессияз
Пие
##дам
##em
ужмы
##акан
##кась
тач
##ерей
йылпумъяськем
кенеше
книгаен
вакытэн
бызьылӥсь
косо
студентъёслы
дауре
пиосмуртъёс
специалистъёсты
Пермьысь
Кивалтэт
литературной
Дуннеысь
Вожвылъяськон
помидор
84
Лилия
сэз
тынэсьтыд
хирург
##пет
##ӵы
##скон
##исс
тодӥзы
##ельников
кыкназы
сямъёсты
##ъямез
улосчиос
пумиськонын
пиосыз
устооссэ
дугдэ
дэремен
тракторен
##метов
футболэн
зым
эсьмаса
##вард
##етысь
нунок
нимъёссэс
##ийской
висъяськы
сямъёс
учкисьёсты
юнм
малпаськоды
висёнэн
пуксён
бускельёс
пуштроссэ
гумыосты
Мунё
Кужмо
велосипед
##чирган
Кыз
Сос
##цизы
##ъямы
палъёсы
улонам
отли
полын
кунын
##дскын
Арган
вуттэм
возьматоно
область
Стар
189
Евдок
Республикаямы
литературалы
Леонидовна
эмъюмъёс
барыш
утьыса
Жан
Зап
Ио
Фил
йылӥзы
##зю
##сли
##лозэ
##гон
огвыллем
нациосын
лыдъяз
бергат
удыссэ
шаермес
110
быръёзы
##ётчик
тросэзлы
дырысеным
куаре
Президентэзлэн
автобусъёс
Анатольевна
ФАП
Ег
Чем
изь
Ӝуж
##АФ
##иков
Кузьым
воштэ
паймо
лыдӟонъёс
кырӟанэн
косэ
возьы
атайёслы
кило
площадкаос
писательёслэн
милиционер
тырмымтэен
Воткинскысь
субсидия
совето
Сочиын
автобусэн
ӝикыт
пристав
Бол
Омыр
Ческыт
Шедь
Эду
сь
сиськыны
##вью
##бул
##амер
ужъёсы
##едлэсь
##ымонэз
##лыксы
калыкын
##ичур
лыдъязы
гожъян
эшъёсмы
##усъёс
##льтур
воштоно
##умыр
Ужысь
Берык
шумпотӥ
ӝытозь
130
дышетскисьёсты
мукетызлы
кооп
зороз
Татарстанын
Дорамы
Буранова
##ньыс
пилем
улӥськомы
секундскын
завед
презент
Акт
Тул
##иеныз
##ентэ
##скич
валазы
##ноп
##ъяськисько
курыны
вырон
журналъёс
малпанъёсын
студия
вунэтыны
яратыны
переп
школалы
ялӥз
Интернетын
пиштэ
образование
кудӟем
Альберт
Ермолаев
санаторий
Ель
Кав
Сё
Ферма
чир
##алазэ
##ентэн
солань
кылэн
вузэ
огазь
лэсьтӥсьёс
кошконо
кемагес
##аязы
ляль
##ылэмез
##ениея
дӥсьтӥсь
алд
шапык
техниказэс
Самсонов
Роза
пир
уен
##сесь
##бек
шуэр
##едж
берпум
адямиосыз
пӧрмем
ёзаз
##ӧдь
Аслы
гажаса
ветеринар
тодӥськод
##ацияя
возёсъёс
Казаньын
Ньыл
Чуваш
генерал
Эдуард
88
Республик
эсэп
##ион
##мыныз
##бол
##ИСЬ
##oo
кескич
##икалэн
вералоз
карлэн
быдты
гуртам
##араж
быро
бырон
##амында
йӧспӧртэм
луэмен
черкын
бызьыло
бурдо
вообще
Август
мадьяр
визьмоесь
вурем
кичӧлтэмезъя
писательлэн
керет
трениров
Коробейников
Слав
Теле
Фа
штаб
##ормат
##адж
##яме
огинэ
Тарту
ӝутоно
##прес
малпанъёсты
Крестьян
кышномуртлы
Бадӟымез
бӧрдэ
гажась
конкурслы
1993
Ӟечкыл
Уддяд
##галан
Америкаысь
Мултан
Дружба
Зан
ӧпке
##тиз
союз
кылӥсько
басьтытэк
##монав
лыктэмын
шӧдо
##озяйств
пусъёно
Кондр
ужъёсынызы
быръёно
куштӥськ
фестивальзы
премиез
медальёсын
темп
декабрь
инвестор
хоккеен
поселениос
тусбуй
Бия
Тыло
Юан
Ӝог
##жы
##кой
##инова
##ысети
сюдо
быдтӥзы
##онъёссы
дунзэ
Англи
вузаса
ваньмызлэсь
туристъёс
пыӵам
сюлэмме
##ираж
##ративной
реклам
заповед
Бигер
81
92
Сере
Ток
тен
##юись
##to
##ениез
басьтэмез
ворме
малпаны
школаен
##улон
оскыса
марлы
семьяеныз
кинлэсь
йылпумъяське
пиослы
процентлэсь
Крист
бертэ
вамыштӥ
азьланьтыны
Путинлэн
шоу
научной
критик
винтов
Кривилёва
БР
Пӧй
мыж
##ее
уженыз
##лись
карисьёслы
гуртысьтызы
юртты
##цилы
пуктэт
нуналзэс
выльд
улонме
##никъёсты
адӟытэк
учкем
осконэн
суро
тодмоос
вожмаськ
киземын
Балт
йылпумъянъёсъя
пыжем
1942
балетъя
Коммунар
Зура
ваг
гозы
##us
аръёслэн
Удмуртской
нылзэ
нимало
##никын
быдэстэ
усьтӥськизы
чебергес
Никиф
огазеяськонэнызы
киыз
Сераф
концертэ
службазы
нылашлы
коты
килограммлэсь
Оскем
Специал
##ционной
Егорович
Лэсьтӥськон
уродм
87
Вадим
Улэ
тетрадь
чеб
огезлы
##евалэн
##онъёссэс
тунсыкъяське
##циосъя
##ётын
шараяськиз
Евров
азинскемез
кужмоез
празднике
пужъя
дӥськутэн
Киуж
Фестивале
актёр
скульптура
уст
##пл
##ектэз
школаосты
коньдонзэ
пыдэс
олокыт
министерствоен
малпаськытэк
заводъёс
муромы
техникаен
пельтоз
кунгожсьӧр
жингрес
специалистъёслы
комнат
Кибаш
Университет
открыт
Ба
Шам
жилищно
зэ
##тылэ
##стат
##омон
нуналъёсаз
Кук
лыктӥсь
паймиз
ветлӥськом
быдэсто
ярантэм
киул
ужасьёслэсь
газетъёсын
сётъяны
поръёс
Учке
Агро
чырмыт
Руслан
Кузьмич
депутатэ
Авторез
Вош
кок
##оть
##одром
тросэн
маль
укша
азямы
выжон
выжез
йырс
сюлмаськиз
вуттоно
уйшор
шумпотӥз
журналистика
дасясь
шундыпуксён
улӟы
пыкиськыса
1970
Бигра
учебникъёс
Муниципал
печатлам
мудрон
Челяб
мандат
Гань
Талэсь
бӧ
благ
##кеч
##ляны
##es
##ОЖ
2020
кунысь
ӝуатск
##дае
сӥньыс
выжые
урмон
кыстӥськись
вакытъёс
лэзем
воргоронлэн
Маке
комисс
творч
жингыртӥз
Кузпалы
Йылпумъян
Июль
бассейн
Галя
Отысен
##фат
##нач
##ошо
##ивош
##исен
дыръёсы
##лыкен
гожтӥськыны
ваёз
эскерисьёс
вӧся
авт
возьматыса
тазалыко
Школаез
Богатыр
пуксьыны
филологияя
Германиын
Сибирь
спасательёс
Талл
моно
фили
ӝабыр
ӟич
##малэсь
##ol
тӥяса
##лист
##евлы
басьтӥсьёс
дышетскисько
садик
куноослы
урд
ӝытъёсы
ансамбльысь
Укно
Черн
коркаосын
берганы
1930
Минниг
Глазкарын
ассоциац
сугон
Баграш
Дарт
Мӧй
Сык
Эст
изьыны
фабри
##оосыз
##яш
##фет
##фильм
##алия
Сокем
воршуд
гожтӥськон
быроз
##ӥськы
##атских
кивалтӥсезлы
данъяське
нылкышнолэн
администрациос
заводысь
сценарий
Тӧроезлэсь
Данил
ветеранъёслы
Елаб
Смирнова
##циклоп
процентозь
Прокуратура
Егип
Буб
дж
##ьной
##цин
##ченко
##ення
кылъёсъя
дышиз
нылъёслэн
дунъямын
йылоз
пайме
спор
Вераськ
##ингв
малпаськод
шараян
пияла
журналистъёсын
келяно
чорыганы
Михайлова
Антонида
Перепеч
Янгыш
химия
Вишур
Ефрем
ивортодэт
Бил
Вазен
Санд
##дылэсь
##тоды
##мозы
валам
пумыз
пыриськемъёс
кенешыны
вузъёсын
хозяйствоослэн
ужамезлы
Кӧт
1996
музейлэн
инспек
Уткина
ӧрилэн
гоча
Стрелков
Лӧпшо
Сыктыв
Быз
Ох
Пуж
##ерал
валаськод
##чилэн
нимез
утёзы
сямъя
аресаз
только
гуръёсты
азьланьтӥсько
квартир
кутч
кышкан
инфек
сюсьтыл
Аль
Мос
Мичур
Пич
крез
##ъё
кароз
быдто
юртсэ
##онъёслы
берлань
Кылчин
выри
нуоно
сюлмаськись
Кыкез
Ассэ
ыштэм
пуныос
Андреев
пияшлы
апаез
педколледж
бабуш
Выжыкыл
кайгыр
тариф
Даниил
Иерус
Миннигара
Донд
узы
ысен
ёрт
##иск
##лова
##осэз
улозы
##ичной
проза
гожты
бадӟымъёсыз
кунлык
Мили
##учка
таӵеез
улӥсьёслэсь
клублэн
уродзэ
апае
ӝутскыны
конференциос
телевидение
Орлов
Сӥё
экономикаез
Союзысь
Ульяна
Сыктывкар
ВК
блок
##am
##малы
##ОМ
##ъёсыд
кылмы
##иосъя
Инстит
кинэн
йылпумъяны
огазеяськонлы
специ
##гурезь
гажаны
куартолэзь
Богд
бубыос
Адӟыт
Чаклам
секретарь
ёрмыса
Игнат
организациос
КПР
госпит
ньӧ
юлтош
##вто
##НИ
##алазы
огдэ
##икен
##раиль
##инаен
интыяны
радъяськозы
бергес
пумиськыл
вуттоз
азьланьтӥз
кужмоя
ымдур
пуксем
усьтонэ
пальыш
Литература
оглюкет
дивиз
мешок
столовой
Чипчирган
##циклопед
КПРФ
Бажен
Вод
Клю
Юра
дом
##ръёс
##юков
##атив
лум
валъёс
Удмуртъёслэн
огазеяны
сигар
котькудаз
обком
кизем
Школае
коркаосты
Асьсэос
Педунь
субсидиос
математикая
офицер
Кондрать
Гос
Нянь
Чик
бӧляк
ӵӧж
##жир
сётӥллям
нимлыко
синъёссэ
выжыны
усьтӥськем
кылбурез
центрез
кырӟанзэ
##ябрёзь
##ациез
юанъёсты
райком
ӝожтӥсько
##лимп
котькудӥзлэн
350
Касат
Георги
Пугачёво
шузимытӥсь
патр
счёт
ӧлексы
##усэз
##енно
##орез
инмар
вералозы
пыроз
пумкыл
прот
усьтӥсько
Кылдэм
##учыр
котырез
лыдӟем
журналын
луэмзы
федеральной
труд
Автоб
куинетӥзэ
кадесь
Вормисьёс
камер
Вахрушева
азьмынӥсьёс
Качкашур
93
Граждан
Кок
Лӧ
МТ
Магаз
кым
##рас
##ния
##ьёс
##язь
##бан
##ӝужан
##овка
##наст
тӥын
огназы
огвакытэ
потӥмы
##толэзёзь
##яськемын
калыкъёслы
мынӥськом
адӟеме
дышетскыса
пыӵало
азьвылгес
финно
Малпай
кожаз
матынгес
Городысь
Аксион
лыдӟисьёсмы
Вормисе
нарком
лопыр
профессионал
гитараен
##енгеш
посёлокын
Кибашлы
Нарк
Техника
Чеп
рол
ӟигар
лэсьтӥсь
гожъясько
возем
яратӥз
вордскизы
нылкышноосты
берыктыса
командиров
кариськы
Асме
тазалыклы
фестивальёс
мукетъёсызлы
магазинэ
Финляндиын
атт
Общественной
Белорусси
мускыт
Главатских
жадь
сие
ӧж
##зин
##ЕЛ
##ателез
ужасез
ужакум
##ъяськоно
##ток
пононо
##лыке
##иея
сием
корпус
оскись
шедьтоз
возиськоз
сюлмаськы
##ератив
тодматско
Асан
уждунзэс
кылдытэтысь
фермеръёс
##art
Вордӥськем
Мороз
Иоанн
Серебр
Дол
Лаг
аф
##яе
##ЕВ
##омыса
##пуос
медпун
быгатӥм
яралоз
##остин
вырисьёс
Серек
слав
##иллямтэ
пыртоно
Балезиноын
улэмез
фермае
факультетысь
сюлмыныз
Митроф
пенсионеръёс
Кад
Сел
Фар
##лас
##эзь
луыло
тодамы
Ваньмы
Огдыр
черек
##ератур
тунсыкоез
Сергеевич
тупатъямын
синмаськи
муниципалитет
дуногес
Краснов
##очной
армиысь
Юрттэт
статьяос
патриот
интервью
Мансий
Пч
Сап
велик
##ДИ
##ерж
##етсэ
ужаськомы
палъёсысь
##андарт
кельтоно
Сюан
бӧрдыса
Дуно
библиотекае
ожмаськон
биатлонъя
Огазеяськ
онерчиос
трамвай
Реш
Саш
Хар
Чех
душ
##онс
##ыкай
юрттӥськыны
пукиз
гожъяло
быдэсмиз
Ужась
кылемъёс
пусъёзы
кивалтӥсьсы
ортчытозы
##ября
предприятиын
кышкасьтэм
1988
##амея
гырлы
тылпулэсь
православ
Захар
no
Пан
Чек
плем
##мор
##мез
##уто
##id
кутӥ
##едр
вералляз
кари
ортчылӥзы
гуртысьтымы
интывыл
быгатӥмы
нуисьёс
вуттӥ
##аже
сюлэмо
атайзы
##антъёс
Улонын
слов
чотан
мытэм
1943
фольклоръя
люкаськемъёслы
чиньыен
пужыя
Пономарёв
ишкал
температура
творчеств
Грах
Ом
Олимпи
Трак
Чагыр
гоч
республи
##пыд
##ио
##ездэ
куск
##уризм
сюдоно
нылэз
кареме
##ентьев
куронэн
стр
##есьгес
лыдӟизы
тырмытэм
султэ
бырйисьёс
минерал
келял
Семёновна
быгатонлыкъёссэ
емышъёс
Париж
пальпот
ворсамын
газетэн
базар
тылобурдоос
буйгатыны
вадьсын
Юмшан
кинюртэм
Бес
Механ
тираж
уси
##фак
##Дор
##ЧК
##ЧИ
##отин
кивалтӥсеныз
семьялэн
Ужез
кизь
ӧжытсэ
пудолы
нылкышноослы
ёзъёсын
лябгес
сэрегъёсаз
катрад
конференциын
Дораз
тубат
Фёдорович
грамота
эштосъёс
пиштӥсь
отделэн
диспансер
чуваш
механизаторъёс
Украинаысь
налог
Елабуга
АП
Пы
сылыны
##турын
аран
пӧяськ
калыкмы
ИжА
##улина
полысь
чакласьком
Анж
ужпумъёсын
данъяськыны
Стол
малпаськонэ
шулдыръяськыны
Егитъёслы
оштолэзь
пуромиз
Христослэн
Ветл
Китайысь
движен
вотэсын
ДондыДор
Белы
Па
##дылэн
##эг
##ербай
луимы
ник
консерв
дышетозы
лэсьтӥськом
ӵошатоно
комит
пионер
Кылъёсыз
яратӥськы
вормисьёсты
кивалтӥсьёслэн
юанэз
гужемзэ
турынэз
буйг
больницаысь
коркалэн
экзаменъёс
Лыдпус
1960
шайгу
кибашлыос
пьесаез
нянез
адресъя
Лӧбыш
Суб
Тыныд
Тюр
Фр
Эгр
##атэм
##ЕС
##ӟем
сюд
##ъяськымон
сюризы
басьтом
кулэстон
##ична
##никъёслэн
быдэсъяло
##ляр
ӝутӥське
Ану
шедьтыса
элькунмылэн
тонналы
дышетӥсьлы
нылашлэн
Асьмелы
Шуо
спектакльёс
училищеез
умоез
видеок
баскет
Франциысь
Палэнэ
быдӟалазэ
Бикузин
фондэ
клип
Индустриальной
Лес
Руд
рестор
юаны
##ыче
##КА
##овский
поныны
##инаос
басьяськ
кулэлыксэ
кыксэ
пимы
мылкыдды
эктӥзы
йылпумъяськоз
кыскем
люкемын
вайи
вожатой
Сюлэ
сэрпал
пушкам
дӥсез
писпуосты
кичаб
Чеберай
образов
Воткинскын
Ульча
чупрес
Эльв
##рагай
##мотр
прививка
Таллин
79
Гол
бай
##ch
##оскет
тӥям
веранъёс
##кузы
юртъёсы
пота
ваёзы
##укыр
суретъёс
палаез
люкиськон
хозяйствоен
##потека
депутатъёслы
карта
пияшлэн
берытскыны
эшъёсыным
экземп
пьеса
реклама
Диана
сессиын
тырмысал
Тронина
Вылегжанин
Спектакль
Трактор
98
глав
##чыр
##ӤСЬ
##алоды
##ъятэк
валано
##ъяськемез
басьтӥськом
Россиез
кунпуш
вискысь
кильт
йӧт
##ысалмы
бызьылэ
Крем
крезьгурчиос
группалэн
возьманы
Калтас
1989
азинтонын
Азин
Яковлев
медицина
ужбергатон
Восточ
музык
пумкылъян
ИжАвто
##ербайдж
Вере
Кын
Мем
Чуд
Шиб
кать
ох
сик
терм
энерг
ӵаб
##атӥз
##сик
кутӥськись
##имер
##имучыр
дунъясьёс
улонмы
усьто
шоразы
шӧмыз
куштэм
управлениен
артистъёсты
архе
азбараз
группае
черодын
база
умоятыны
Саран
самолё
юрид
Мама
ойдолэ
дыдык
арнянуналэ
телерадиокомп
Прохоров
Белослудцев
ИжГТУ
ВКонтакте
Оп
лир
##замен
##жур
##шова
##цар
##овай
кыло
кылме
вуко
##тонэ
конв
эшъяськыны
дорады
Тубыл
шорму
Огзэ
городъёс
пыдес
кырӟанъёсыз
кушты
клубъёс
170
160
##ницае
Виктория
выльдӥськон
##гресс
университетэз
Завья
чильп
кодекс
Витальевна
Телев
Сов
Ульян
гри
гараж
зач
усык
##динг
##щаг
##есса
##наськ
##ышев
понназы
Россилы
стро
возиськиз
нылпиен
кенешсылэн
кылбурзэ
бюджетэ
концертэз
вокзал
вужмем
алон
Никитин
Кырӟась
выльдонлы
Картэ
грамотаос
Этно
91
Кинэ
Мад
Олом
Шут
бон
жу
##гын
##бик
##сьма
##езин
##оде
##ышева
дышетонлы
эшъёссы
воштӥськоз
шӧдӥз
шудбур
кузьма
куспетӥ
сюлэмаз
тунсыкогес
Пургалась
ӝытъёс
1997
чакламлэсь
пӧрмытск
йылолъёссэс
нуллон
вӧлмытонъя
шуккиз
##ВАЛ
сузян
ӟыгыр
кулэстыны
сӧзнэт
Мугез
сизем
шофёр
Верещаг
Мум
Нась
сиськ
валля
тыремын
лыдъем
гожтӥсько
чаклазы
тыршемзы
ужпумъёслы
пӧрмыт
Гуртамы
палэнтыны
иськемын
почгес
паймизы
ыстӥз
дугдылытэк
водительёс
Яратӥсько
##ельсин
мультфильм
сельсовет
сезьы
тусьты
огазьын
##монавт
Лип
йыды
кивош
фл
##оен
##тылӥ
##ллет
##НА
##АВ
##юшев
##етлэн
##истъёсты
утизы
мынӥсьёс
##уман
вырос
нуисько
витамин
u043a
бюджетаз
паймытэ
трасса
семьяосысь
Уйин
Бурд
Министерство
ярамон
##нигир
Кварт
Геннадьевна
Пӧйшур
Кедра
Снигир
ауд
тан
тип
Ӧнер
##иысьтыз
##ad
##th
ужоскет
##чий
гуртлы
нимам
мукетгес
адӟиськ
бордам
дыръязы
пусйымон
иворто
шугъяськон
журналъёсын
140
Прем
конкурсъёсын
арбериосын
почталь
омырен
кӧттыр
Ворончи
январьысен
Качак
дядяй
Аслым
99
Гаг
Судар
дортӥ
санд
фаш
##иатр
вулы
##онъёсъя
пукыса
##ейцар
Огласянь
вузъёсты
толэзьёсы
Стал
вӧлмиз
службазэ
пӧрмытэ
Комис
мадёс
##ухов
курсъёсы
пертчон
Чакланъёсъя
баӵ
йыружъёс
Европаын
оглюкетэз
Устинов
весяклы
ВО
Тонэ
паст
##вин
##кез
##ха
##цы
##ӟи
##ӝож
##овной
##ертуар
##риарх
воштӥзы
##ворцова
кенешын
книгаяз
палэнск
Калыклэн
дышетӥсьмы
скалъёсты
бичан
журналистъёслэн
Камский
##ъесты
киужен
##щикъёс
тодэмез
тема
Песятай
##алимпи
решение
Афанасьевич
Понино
Ньылетӥ
Калтасы
Ачид
Виль
Габ
Узы
чус
ченгеш
##пов
##алан
##ысо
кылён
##иоссэ
тыры
каргуртысь
оскыто
Александров
Ужбер
сиёнъёсты
пумиськылӥзы
Гуртлэн
Алла
Улонэ
классъёсты
Корн
ватыны
шумпоттӥз
энциклопед
праздниклы
Ваньмызлы
ӵукнаысен
предприятиослы
Турын
Пенси
страна
эмъянъя
Атаез
пачка
эштослэн
инвестициосъя
##ящен
аракы
филиал
Дондыкар
94
Жюри
Нефт
УЧК
гол
маг
##метр
##икс
##ъяськи
удмуртэз
##ентъёс
кулэезъя
##идет
потты
тодматыны
усьтӥськозы
ӧйлась
Ансамб
чеберзэ
югдыт
Выльысь
ортчытъя
лулпуш
административной
историк
радиоын
аспӧртэмлык
килограммозь
шуккиськон
бубы
3412
мунчое
Вакчи
Электрон
Котькытын
Пас
лам
лег
тю
ыль
##камы
##el
пырозы
##ашур
асвал
потаз
палата
дышетскемез
висъялозы
кораб
улӥллям
нылпиоссэ
пичиль
сприн
данъяськон
вазиськем
сюлэмам
Одӥгзэ
крезьгурен
кысык
нюръясько
возьмано
редакция
паймоно
Романова
Ӵошен
склад
сӧсырмем
песятайёс
Аркашев
УДМ
супыль
Лада
Нюр
Ярысь
бир
нымы
ыр
Ӝож
##иевна
##банк
кус
##арной
сочин
кыллё
##розь
топ
лэсьтоз
малпалля
оскиз
ярк
умойзэ
улосэ
толй
##нивер
куштыны
радиозавод
ватсанъёс
квартираос
вӧлмытыны
группаын
группаысь
абдр
электрокужым
концерн
Хохряков
##агнит
КИВАЛ
Ат
Йыртэм
Тит
катэз
##ьева
##ерим
тум
кариськом
миллиметр
кошкемын
ивортэмын
сюлэмзэс
литератураен
висёнъёсты
пӧрмыто
адӟытонэ
бамаз
ваёнъёс
минутлы
жингыртэ
Шумпотыса
кӧлыны
регист
шахмат
специаль
Ер
ЛД
Рах
ожыт
##роль
##ed
##мин
##ov
##эзъя
юрттонъя
проб
пуктӥ
лэсьтӥськись
##апевт
##лане
ветлонэз
кельтыса
##ыртыны
эмъя
данъяськыса
пиналъёсмы
Инмарен
валанъёссэс
командазы
##мемыз
утялто
коллективен
Уваысь
ӧре
гидъёс
Пумен
печатламын
пытсамын
черодэ
будосъёсты
Висён
быдӟалазы
койык
noin
Атам
Диплом
Пов
##ӥн
##ЛЫ
##ртмаськ
##ами
шуозы
огн
##иказэ
дыръёс
нуналысен
куриськонъёс
пыриськи
сюреслэн
кудъёссэ
вайись
пыдъёс
законъёсты
спортсменъёслэн
улосвылъёсын
даурын
турынъёс
кулэсмизы
школалэсь
талан
Куинетӥез
Святой
йырвизь
компенсация
Кавказ
Мичурин
ЛДПР
noindex
Сыр
Эсьмаса
мел
юосты
##ения
##атур
##ето
аръёсты
##пусэн
каргурт
гуртэн
дунъяз
тыршиськомы
семьяысь
анайзы
дуннеен
кенешен
люкаськоз
##пред
эмъяны
Мумы
ёзв
кузьымен
Пиналъёсты
Экзамен
киосыз
бӧрсьысь
мода
бубиз
##салом
данъяськымон
юрттэмен
передачаос
волейболэн
мотоцик
Сул
Сеп
етӥз
чап
##ri
##онат
инъетэз
верась
##идэ
выльдоно
##никлэн
синуч
##уля
выжтӥзы
##блиц
ваиз
возиськыны
шорсю
йылпумъязы
Огаз
##шкин
лулсэр
витьтон
литератураын
окмы
киноез
берпуметӥез
Новос
Ватка
Депутатъёслэн
Кузьмин
практической
ватсэтъёс
историезлы
##астроль
путёвка
Балтась
Гагар
Лён
Поб
Тан
Твор
кылъёссэс
коня
шеди
бугор
мылкыдъёс
улослэн
вузам
данъясько
герӟаны
садъёсы
##ресс
чидась
вӧзам
редакциын
календ
кисьтэ
бакчаын
Чернов
Ураськ
Азвесь
зӥбет
Олимпиада
практика
исс
Перевозчиков
Ванюшев
новости
Атаманов
Велик
Гу
Сип
быт
свет
##oc
##истэн
понэм
контор
нимъёсты
кутскисько
##естра
стандарт
усьыны
йыразы
кытк
##овичлэн
берыктӥсь
берыктоно
Можгалась
нылашъёс
Карл
доцент
ӝутске
##чикъёс
метръем
культуразэс
правооссэс
губерн
немецъёс
йылпумъямез
дэри
тузон
висказ
еврей
Бадрет
вазенгес
чеберт
Коп
рус
шорт
##етъёсты
##льым
валалэ
кылыныз
покол
сётӥськись
пукси
кыкто
буск
##урасьёс
манер
кысконъя
лыдӟиськ
##равля
##циосты
тырмымон
шурлэн
Калыклэсь
бӧрд
Андреевич
куасал
атайёслэн
1920
делегация
тэшкылиос
Швейцар
кылосбуръя
Ка
Лё
Нэнэ
Нури
Пей
вень
юонъёсын
##ion
##ЫШ
кылпум
##аськи
сюдэ
лыдъяса
##ъёсызлэн
пиналлэн
пиналъёссэс
ваемын
миллионэз
Туга
##чизэ
шумпоттӥзы
проектъёсты
чакламтэ
ватсано
дӥне
тодматэ
Спир
магазинысь
суббот
промышленной
##олодиль
агаез
Кужым
пӧзе
Шибанов
ВАТ
Дэр
Трет
Чид
бом
же
сут
сантэм
это
##еен
##пут
Таб
потӥм
понӥзы
пуки
кутскытозь
шедемын
будозы
усьт
йыры
кошкыса
йылпумъяськ
конкурсэз
Эшъёсы
ыше
администрациен
паськытатыны
инкуазен
оптим
удалтоз
омырын
культурной
шуэмез
тупатъянлы
Луоз
объектъёсты
проектэ
лӧпкыт
Крезьгурез
ӝегатэмын
Люкаськемъёс
Визьмо
Меӵак
Лиза
Ям
##ьма
##ap
##би
##мытӥсь
юртэн
##матэн
ӧзгес
гожтэмез
радлыкез
бадӟымъёс
экто
сӥзён
дежур
нюж
кырӟанъёссэс
ышем
ньыльдон
##елика
u0443
мытэмын
нуллӥзы
лобась
улӟытыны
Эмъясьёс
темаез
люкаськемъёсты
кулэясько
Антонова
мынӥмы
дэмлазы
1918
суретъёсын
котьмае
пальпотыса
инструментъёсын
лиценз
Документ
Третья
ЗА
гостин
иуд
тӧдь
шод
ӝытэз
ӵок
##ъём
##САН
луоды
дырме
интыя
гожъязы
ӵошатыны
выжизы
вераськом
тыршозы
Марлы
чеберм
сиёнлы
u041
валэкто
Мувыр
куноку
классозь
куштӥськыны
дугдо
зоръёс
Полит
Азбар
Кизнерысь
Тыловай
Армие
Быги
жанр
Сир
рук
вуытозь
##истической
кутскыку
школаямы
йылазы
ватэмын
##онэд
кыскыса
черл
пӧрмо
нуиське
зэмлык
кыстӥськизы
урамъёс
u0437
бырйи
Краснод
кылдытэтъёс
##очка
курадӟо
котькудӥзлы
пегӟыны
дурбасьтӥз
выжыосмы
Литератур
Кожиль
Владыкин
Вунэ
веськрес
Шӧдӥське
пыдкутчан
мордва
ВАТСАН
Врач
меч
нас
##иё
##ӟы
куазез
##онъёслэсь
ветыл
дышетскемын
йылпумъямын
огазеяськонлэсь
люкиськыны
возьматы
валэктӥзы
номерез
дышетскисьёсыз
тӥледын
сётонэз
быръёнъёсъя
чузъясько
мӧзмон
укноос
кулэяськон
Израиль
##КОЛА
вотэсысь
Быгы
##динова
Павловна
Сабант
спектаклез
митинг
Родионов
Коз
Лап
Паша
##УЛ
##енбург
##орлэн
калыкъёсын
тодады
##никъёслы
сюрсозь
##ураж
быгатон
сюлмаз
пӧраны
сюлмаськонэз
шуген
шугадӟ
Уголовной
малпанъёсы
кужымзы
яратонэз
посуд
Правительствоын
тракт
Черно
ветлозы
кортӵ
Гожтэт
арендае
Спортъя
станок
Ӵошатсконэ
Котырес
чилясь
Абд
расход
токма
Анжелика
##идетель
Пыч
Сил
Ших
реф
следств
##блок
куэм
вуылӥм
вуылӥмы
удысъёс
учкымон
сюрестӥ
вераським
яратэм
вазиськонъёс
ӧтьыны
министерстволы
вамышъёс
ӧдъяй
##асьёсты
улосвыллэн
возьмам
Эксп
шоркарысь
##ьянова
войнае
Варлам
чиньыос
Союзлэн
библиотекалэн
резерв
УЧКОНО
Салья
Яган
кере
сво
хол
##зя
##иерей
##хня
##ующ
сояз
##олёт
шуиллям
##екор
вылонэз
##евод
тырем
гуртъёсты
лыдз
адӟиськод
висё
комед
вошты
кӧтыз
возисьёс
йӧлэз
ваньмызлэн
сӥя
юанэн
дышетсконни
Вуюись
Малпанъёс
кышкыттэм
Укмыс
Проф
Самар
##намя
Байгурезь
вырӟы
Бызь
сборной
рекорд
Пӧлысьтызы
Перевозчикова
чемпионатаз
оглюкетсэ
консерватор
Дыд
Кер
Корт
Сэп
Физ
Шӧд
жыны
##ве
##вит
##вег
##бота
##СЕЗ
##отон
##ымысь
дышизы
нылмы
наш
тодӥсьёс
пукты
кутсконэз
эшъяське
мылкыдъёссэс
шедьтод
возись
нылпилэн
анайлэн
##ыртыса
данэ
вуэмен
корказы
##ӥськомы
Только
управлениез
кылзӥсьёс
перес
ӧръёсъя
школь
гыроно
инвалидъёс
юмор
Дмитриевна
питран
Чирков
мыдлань
Лэсьтӥськонъя
##равляющ
лётчик
хозяйств
##анс
ужмес
##ожд
адӟым
вордӥсь
лыдъям
##неф
йырме
муртэн
миф
учыръёсын
верамзэ
##упп
представ
Можг
кариським
куштыса
узырлыкез
Евсе
уродэз
чылкытатон
гордэк
##ъесын
осконзы
Люба
##ственной
##парх
информат
паркын
Мусо
агае
интернатын
Тупат
диалект
Моис
Воксё
Выльдӥськон
Никифор
Тугашова
Боб
Жуг
Тор
Финал
гран
отысен
сылы
сылӥзы
сазь
ӧсэз
##вест
##АМ
собыдӟа
валаське
##ектэ
##лиц
пыраны
поэм
##истика
понӥз
быдтыса
##яськом
дышетонэз
адӟозы
ӟечез
чаклась
став
вошт
Кылз
ӝуш
сӥзизы
##ырто
вайытӥз
Нылмурт
Улӥ
классысь
классъёсы
Корея
утялтыса
сайтэз
авторъёс
тракторъёс
кутсконысен
сизьыметӥ
Сюресъёс
ялон
вуымтэосын
кесэг
басьтӥськи
##ТОВА
кибашлыослэн
санитар
Ваулина
Игнать
обороная
##ейтен
##ьӧмпу
Кукмор
грипп
Снигирёва
Ксю
Мук
Сах
мир
штан
##сл
##ЪЁС
##ЫР
кутоз
вылонзэ
##ъяськоды
##сазь
сётӥськом
улоназы
учкиськод
пыч
ваизы
Марья
коньдонзы
городэз
городъёсы
кизер
армия
Данилова
юнматоно
мӧзмыса
воргоронъёслэн
Устоез
Ложкина
бюллет
друж
репетициос
деп
Ӟардон
##анъёсты
##измен
ужакуз
##мытск
Удмуртская
сюрыны
пумысь
малпамея
##ляж
ӝутӥськиз
##аослэн
##абил
##дӥськом
яратӥ
шунытэз
сюлмаськыса
пыдло
суреданы
бызьыны
кышномуртэ
шумпотӥзы
воргоронлы
вожвылъяськизы
дэмлам
##ибир
мину
кылдытэтъёсын
u044c
шоркарын
таки
темаос
литературовед
вуылозы
сюлмам
капчиятэм
Тюрагай
архитектор
террор
Туймы
Пап
гар
миськ
##цизэ
##алова
##ери
тыризы
гожъямын
Куашк
кыклы
синтэм
тупамон
улӥм
нылпиосмы
шӧдэм
спортын
спортысь
пыдъёсыз
Волга
Сыӵеос
бичетэз
спортсменъёслы
кусыпъёссэс
куронъёсызъя
улытозяз
огазеяськонъёслы
меӵ
малпанъёссы
кубокез
шыръяны
шергес
Скворцова
юбилеезлы
корруп
Белых
Дӥсь
вавож
холодиль
чурт
##пара
##исэн
##ёл
##анлэн
куль
##адэс
луылэ
##каяз
улазы
ёросэз
эшъясько
ӟечбур
усьтоно
коля
Крыл
кельшымон
шутэтско
дугдӥ
косэмын
чылкыта
кисьтэм
Авто
Улонысь
экономист
чузъяськозы
фермаос
кӧтӝож
Артем
##ефилов
синйылтӥзы
дэремъёсын
пуктылӥзы
шайтан
##ТОЛ
анализ
##ехникум
покчиослы
лыдъямон
Труб
Ватсалом
народ
Коӵышысь
##арняе
героин
Анфиногенов
гунь
эл
##кор
##шева
##овер
##олё
огъёсыз
сюроз
басьтӥллям
сётӥськиз
нырысети
коридор
дорад
виш
кион
пумиськизы
тунсыкъяськыны
данъет
бызьылӥзы
Элькунъя
Калыкен
куаръёс
кушл
##полит
котькинлы
сётонлы
Промышлен
Эграысь
больница
шоканы
висьыса
Бырй
пыласькыны
##промышлен
телефонъя
колледжын
Америкаын
Завалин
ремонт
кукуруза
сандык
Зв
Мамон
Том
втор
уб
фар
##вар
##РУ
##ic
##ерев
##амылы
##омат
сюдӥ
огыр
##кумы
каръёсысь
эшеным
дышетскозы
дорысен
эктэ
шедьтозы
шӧй
тодмое
классэн
тунсыкъясько
нуозы
##берган
сӥлез
кузьмаськ
деф
атайзэ
Кино
йӧллэсь
утялтоно
праздникен
бюджетын
куронъёсыз
Дышетскыны
свидетель
отделен
тушм
абд
художественной
Узыр
пиньысь
Ленинградысь
выступ
евро
Мордовиысь
егитэз
Штани
Эльвира
Лида
Сен
Чет
аля
верт
тест
##ӥд
##усь
##ъёссылы
##мыд
таче
малпаллям
утем
прин
кытӥяз
пиналзы
##льтӧл
выжтон
выжтэмын
усьтӥ
огазеяськонэз
кысконлы
сӥзисько
люкаськыны
огазеяськоназы
ареслэсь
бичаса
ыштэ
пияшъёс
##ять
управлениын
кылзӥзы
берытскоз
Ужрадлэн
Валериевна
##комп
Олеся
вӧлмытӥсь
улӟытон
Учкисько
Оренбург
Усточик
милициын
веросъёс
данъяськонэз
Нюлэ
Гариф
движение
взнос
ӝажы
делегатъёс
чаптэм
Хол
вес
ген
эгыр
Ӧт
##кен
##бон
##есно
##асесь
##иоссэс
улод
ёросъя
утемын
эшъёсын
радъяськизы
адӟиськиз
шедёз
оскиськы
будэтӥсьёс
министерствоос
круг
кельшем
утялтэмын
1000
султо
пӧсьтолэзь
сяськаосын
мерттыны
##чияк
гимнаст
эксперим
губер
луисьтэм
священ
борддоръёс
компаниос
питыр
Шумпотоно
постановлен
Мугорез
страхование
технологиосъя
классика
Вай
Гран
зам
ипотека
лог
юазы
##кл
##мур
##ыкуж
##одав
таш
огмы
##ударст
ортчон
пуконъёс
висъялоз
воштӥсь
вапум
##чиослы
##берку
кӧнялы
##потостэм
визьтэм
Сергеевна
комплек
пырто
чидало
Миля
Шарканын
Гердлэсь
курадӟы
омырез
Ижевске
обществ
Юнда
пуштросо
пуктылэмын
сузэре
Башкортостанын
мунёос
Октябрьский
Вӧсь
методист
баянэн
сирота
Ключи
Новосибир
Бель
Емыш
Образ
Пуз
быш
лейтен
##яж
куян
##овъёслэн
арскын
##едель
выллань
тодоз
радэн
удыслэн
огазеян
##каослы
азинтэ
тодмоосыз
киысь
данъязы
ужанрад
технической
тунсыкоесь
ужамзылы
центрен
ӝынызэ
котькин
бусыосты
перер
1987
Байтер
командаоссы
пусъемъя
Михайловской
Шонерзэ
ӵыпет
могӟ
резиденцияз
Отечественной
Операя
лумбыт
шормуӵ
##ыкужым
XX
Дяд
Тимир
Чеб
жадем
три
##ытозяз
нимазы
##исьлы
медо
кырсё
пилэн
быгатымтэ
огазеям
огазеяз
тыршисьёслэн
Ант
кенешонэз
люкиське
коркае
вӧлдэ
ортчемзэ
Каллен
юанъёссылы
творчествоез
вандыны
инкуазьлы
Татчыозь
пасса
репертуар
мышкын
алнашъёс
Бушмак
интеллиген
Богатырёв
Вос
Рен
гоп
тас
##амаз
валъёсты
пусэз
точ
кивалтэмез
##ебя
удысъёсты
выжтыны
##риф
стакан
ӝутыса
ужрадлэн
оскемзэ
##абот
спонс
югдурен
ортчытъян
программаын
оброс
кариськоно
вамышъя
дышетӥсьёсын
улосвылъёс
прост
чурытэсь
кылдытэтын
шуккем
Шудег
мерлык
вормонъёсыз
Ижевскын
табан
Спас
апайёс
Чакламын
дэмлало
семинаръёс
контракт
Венгриын
вордӥсьёс
Зайцев
шобрет
справка
##лапал
аттест
баӵко
Спирид
пассажир
Пах
Реп
Сям
Транспорт
зон
##ама
инмысь
лэсьтонлы
утиськыны
##ави
асьмемыз
пиезлы
##береж
сямзэ
ватэм
котьмар
зэмлыкез
Азьпалан
вӧлмем
валанэз
быръёнъёсын
курадӟе
бызьылонын
Артур
правоез
уськыт
правда
ӟырд
Агр
Иворъёс
стадионын
пособиос
Вортч
оборудов
менедж
полицейскойёс
Институт
медпункт
гвард
чеп
##виг
##МС
##зыса
инб
##ымыр
потэмез
конд
пуктонлы
отчёт
берам
куриське
тыршыны
##анилы
##ырты
вырйыл
эмъяськыны
хозяйстволы
кырӟанъёссэ
управляющ
партиос
басьтэмзы
Уваын
курадӟыса
арлыдоослы
Паралимпи
лагерьёс
##ъяськемзэс
тодӥськомы
Адӟем
##пания
Рябина
микро
плён
Венгр
ассоциацилэн
сессиез
смена
гижысь
Специалистъёс
никотин
АЛ
Ов
выны
дидж
уртч
##етысен
##тинг
##калэсь
##чен
кылдон
##лива
тапырт
азьысь
Ижлэн
##ники
вераськисько
сиыса
министрез
##каослэн
секытъёсын
культураос
нюк
садэз
уксёзэ
тылын
историяз
сутск
Толя
огъяулон
бакель
кылзӥсько
кожай
##ностез
##очно
Павлов
Гожня
Кузпалъёс
##овоысь
Окилэн
нянен
йылолэз
пластик
Норвег
Мы
Нур
Сбер
Хор
бинь
гастроль
##тин
##тчи
##атозы
##ног
нылъёсы
понэмын
##имон
##ейер
палыз
Росс
куронзэ
шедёзы
будыса
эскероз
шаерлэн
Николь
##провод
миллионлэсь
Конов
Корот
шараям
бичало
концертъёсы
службаын
Наталия
u044d
юнмато
пӧйшуръёсты
шонере
Леонидович
тренеръёс
пальпотэ
дэмланъёс
Пороз
Князева
бакчаос
##ничество
учреждениосын
Интерне
атлетикая
Плотникова
Игнатий
Ульянов
##бикорм
Пычас
Заб
Рез
Юж
жоб
тамында
фан
юонлы
ӝип
##пие
##дыш
##ӟан
##li
ужысьтыз
юрттӥсько
вордэ
нуналысь
##овая
##елл
##еля
##андаш
быгатод
оскиськом
вазиськыса
тупатъяно
вамыштэ
груз
интыяськи
##аторъёс
уродгес
пенсиос
редакцияз
##атлон
ӟечкыласа
шундыӝужан
гимн
капчиенгес
Фёдоровна
ымнырыз
салкым
этнофут
Эскеронъёс
Воронеж
Сузэ
Матвей
вадьс
Куреггуртысь
Солдат
симфон
Наукая
Куликов
Соснов
Зангар
##абилит
РС
Час
крос
том
Ӵек
ӵап
куп
аръёсысь
##отеатр
валатск
##ошкар
##эзлэн
татӥ
пиеныз
ӟечезлы
##альная
вераськиськомы
Кылды
семьяяз
Арлэн
люкано
герз
##обот
музъеммес
кыст
компанилэн
парад
дугдэм
юнматэ
Гердлы
кожазы
дыртӥз
гуртоослэн
быгатэмзэ
йӧндыр
1937
Кузпалыз
Капит
чабк
кружоке
1917
республикамы
олома
ыбылӥськон
ӧтьыса
Пумиськонэ
ректорез
Бекманов
Вн
Ыб
мобиль
шеп
юэ
##ыосты
##ИЛ
курт
##скемын
##атова
##каф
##росси
адско
ёросъёслэн
карытэк
##оголь
пуконо
кый
кунмы
сюрессы
семьязэ
нырысетӥосыз
данъяса
пиосын
луонлыкъёссы
утчасько
берлогес
##ятка
атаезлэсь
Пиналъёслы
аресъемъёс
удалтэ
ӵужкушман
##ромет
факультетлэн
##ровед
асьтэлы
пунэмзэ
кузьманы
нюлэскын
шахматэн
эфирын
Роспотребнадзорлэн
Анисимов
Польша
поликлиника
02
Бобр
Вова
Пыт
баш
брат
кач
там
##ЛИНА
##ДЕ
куды
##ципл
##исьёсын
малпалэ
медс
пӧламы
воштӥськыны
йырсазь
возиськом
выжызэ
Татар
ожтӥр
Конечно
малпанзы
Криз
ужаме
тупатоно
парта
ӝӧкъёс
улэмзы
быгатонлыксэс
киужъёсын
волонт
искусствоя
Богом
1950
Олимпиадае
юрттэмъя
Дмитриева
Лекомцева
отличник
Админист
Бон
Бут
ГТО
Прип
Шук
доп
дӧдьы
даже
коже
сос
сиос
сукыр
христ
чаен
##поз
##хина
##анной
##езе
##ноесь
##культур
каром
##мей
гуртмы
##идем
нылпизы
Кулэм
адӟиськыны
висъяськизы
ӟечесь
полковник
кунсьӧр
усьтоз
кӧжы
шедьыса
кошкись
люкыны
пумиськонэз
пыдзэ
музъемлы
процентъем
шумпотонэн
ӧдъяло
чидано
историен
##аторез
чуръёсыз
пӧрмыты
мерттэм
Витя
1985
шоркарез
автомаш
ӧсъёс
пыӵатӥз
Будэ
информа
тырмымтэос
данъяськисько
Палэз
техникумын
##ледовательёс
Борддор
ныпъет
Сабантуй
Бл
БУ
Гуль
Дуг
Мыр
УЛ
Ыш
утӥзы
фун
##зӥб
##ритор
##маков
##екам
пӧра
консульт
веть
##уктура
ужрадъёслы
возиськ
спортлэн
будэтӥськом
биолог
уйёсы
шумпотоно
Аслыз
центръёсын
Алнаше
картсэ
парлам
лэзён
чидалэ
номырлы
азинскоз
Берлогес
октон
гектарлы
пайдаен
Пайда
группаен
вырӟиз
нуллэм
Пусйымон
Инвест
Степанович
биатлонист
чиптэм
среда
приказ
тюрьма
Магазин
тумошо
Псих
Хаб
Шып
зуч
см
ча
юай
яд
##гов
кухня
сок
ужлэн
ужезлы
##сть
##тэменыз
Сокол
понэ
адӟылы
куриськ
манетсэ
вераськоно
сипырт
пыэд
##остро
кӧняез
пыдлось
суредъёсты
кыстӥськыны
вамыштыны
концертэн
интыяськыны
арбериез
Через
Доре
форуме
керттэт
ялӥзы
Бӧрысьгес
шӧмзэ
продю
буёлъёсын
пальпотӥсь
сюйлэсь
Зайцева
лента
Следствиея
Ярославль
мисьт
очерк
##кышет
кооператив
словарь
шорсюл
кортӵог
ДЫШ
Зад
КУ
Мыл
Нылы
Сэр
Чура
Шап
знач
китай
пакет
##ac
##РО
##езда
##сков
инме
огымысь
потаса
пукем
лэсьтӥмы
малпано
кутскиськод
утисько
сюрессэс
шӧдӥзы
##ильной
Куно
машинае
кариськод
Кудр
шулдыргес
политик
проектсэ
ёзэтэз
куронъёссэс
армян
Удал
азьпалтыны
лэсьтонэ
гидын
Артист
вытъёс
скор
шаплыгес
Европалэн
капчиятон
фильмез
##ятой
чалмыт
Платон
Тимофеевич
югдытӥсь
пленэ
Запад
##аджик
бӧть
Автобус
ДЫШЕТ
Ляб
Нас
Сво
Тят
Ув
Ыж
меж
эгра
Ӟат
##АО
##аке
##академ
таид
нылъёсыз
##кутск
дунъян
лыдын
ватыса
дыръямы
пумиськозы
##яллям
вормем
вожъяськыса
ужасьлы
##писк
вордскемез
кивалтӥсьсэ
##номоч
шумпоттыны
чакламзыя
синмаськизы
##аллямы
Укыр
Калинин
Шудэ
арлыдоослэн
киосыныз
Парз
спектакльын
синйылтӥз
эктонъёсты
пӧзьтэм
вуылыса
##ОСТОЛ
Вормисьёсты
программалэн
учреждение
Вакчияк
аресказ
издательствоын
Библиотека
АПОСТОЛ
Квартира
##ниверси
Даур
Лоп
лист
над
нёж
ряд
фураж
чорт
##завод
##нот
##as
нот
собр
нылъёсын
кулэен
нуныос
лыдъяськиз
##елей
отпу
радъяськись
синъёссы
учкозы
котьмалы
суредаськ
суредъёсын
предл
колхозысь
адӟемпотостэм
лэй
труб
Колос
Витетӥ
малпанъёсме
Полици
солда
Сӥль
Потэ
Ӵошатскон
кыльыса
поселениосын
Студентъёс
фамил
Сяська
нерге
Пахом
Вӧй
Хам
залэ
пыз
пара
перм
эке
ӵыд
##СР
##арёва
##эме
вылтӥз
пыроно
карандаш
потылӥзы
нуналъёсты
адӟоно
киноос
анайзэ
кылдытӥсьёс
авар
будэтэмын
вуэмез
##ехнолог
вордӥсько
проектлэн
мертаны
Синп
такси
Буре
губия
Котькудӥзлэн
Возьма
Гаврилова
лудкеч
Степановна
фотограф
стартэ
дворецын
казак
Геннадьевич
Аксакшур
Фаина
асвалан
Пеймыт
Табань
Байтеряков
Рин
Сект
Три
брон
ракет
##ртэ
##ативной
луим
кылӥз
##ъяськылӥз
карел
пукизы
паласькись
уморт
кунысьтымы
вырем
пӧрмизы
пумиське
Пиез
##ольф
кылбуръёсын
черкез
Кыкназы
115
бурмы
Волг
шудонэз
службазэс
дышеты
журналистъёсты
дириж
быдӟала
вормонъёссы
Парсь
малпамезъя
гимназия
синпелетъёс
кузьмам
станция
##оллейб
оскытӥзы
Кельш
Ӧйтӧд
Тӥледыз
биатлонистъёс
автономной
данакез
Асьтэос
Давид
Касаткин
корабль
Бобья
Гай
Лем
ган
##ro
##гы
##ъёстэ
##лив
##гаын
удмуртъёсын
дунъям
кутскемен
беразы
быдэсъяз
##уков
Анд
кенешез
котырак
Кенешлэсь
нуи
##ательной
бертон
шуре
лэзёно
концертъёсын
дуноез
сётъяз
квартираем
тӥрлыкен
лэзьымтэ
Дасяз
кредитъёс
скрип
Варзи
чемпионатэз
психологъёс
Мурман
Палэнысь
предметъёсъя
ярмарка
четвер
Пыӵ
Сударикова
Краснодар
Восход
Кидыс
Ни
Паз
дед
дыкужым
яз
##аа
##фф
кулы
##скоз
##изылы
луиллям
##тэмесь
##айысь
вуылы
пӧртмаськ
##имать
утиське
дышетскеме
йылын
синъёсын
мылкыдъёссэ
буды
сюресэ
корпор
эктӥсь
эктӥсьёс
семьяосты
##ыртӥ
Куноосты
пыдыз
вазиськи
кролик
шумпотыны
дышетӥсьсы
кузёезлы
##ацие
люкетэн
азьпалтӥз
##ратег
конференцизы
азбарын
йырызлэн
комиссиен
такем
керттэм
ворсаны
музеез
кисыяз
Юрьевна
олимпиадаосын
филармониын
рользэ
ужкагазъёсты
урокын
засед
льготаос
Патриарх
кышкалэ
Иерусалим
Миннигараева
##одеят
бюллетень
лейтенант
КП
Кекор
сс
ӟуд
ӟус
##элы
##мыл
##малэн
##баса
##ИС
##анлэсь
##аряд
коньк
люб
эшмы
комбин
муртъёслэн
секциос
нылпиосы
кошкемез
вылыно
пумиталод
журналъёсты
ёзъёсыз
креди
Кинъёс
кусыпъёссы
студентъёсын
дыртыса
ӧраз
сэрегаз
##етэныз
малпамтэ
тодэме
литературалэн
группаез
суббота
политикаез
батыръёс
Вожвылъяськонэ
Служб
кылкутон
Аркадьевна
преподав
госпиталь
Третьяков
Миляуша
Аспӧртэм
Йошкар
Клав
Льӧль
Пес
ТР
руб
шарк
##ӟыса
дырысь
тыриз
гуртлэсь
пуктӥське
куремъя
сямлы
быгатэмез
пыриськемез
мильым
возёсын
кыскы
Арс
тунсыкъяськон
пусйысал
выжыоссэ
вуттымтэ
куиньмос
ӵошатсконэз
нылкышноез
кельшись
группал
##дорин
##ецеп
берытско
Адямиез
Олок
мукетъёсызлэсь
Прогресс
кулэстэмын
комиссие
Арлыд
гудырикошкон
реабилит
полициын
Чиркова
эстрада
революция
Телефон
Уддяди
котыртэм
Евровидение
Лагерь
Кремль
Завьял
свидетельство
Лад
НК
Пикул
Рег
Чук
века
глаз
ерос
Ӵектос
##ело
##фер
кук
##отвор
##чимы
мусп
удмуртсэ
##вой
лэсьтӥм
удост
висисьёсты
тодманы
шедемъёс
манетысен
вераськемез
##карёв
эскерисько
маст
нуоз
кыдатыны
герӟа
ортчытоз
сюлэмзы
суредам
суредаськыны
бызьылэм
юрттэтлы
тупатъям
вордӥське
бӧрсе
кулэсмо
пыжыны
нуллӥз
Олёш
турттыса
конференцие
азбаре
дипломъёсын
Думаын
Кырӟаны
возёнъя
граммат
куасьмем
Писпу
Варяш
визьнодасьёс
банкрот
Яковлевич
педучилищеын
Туган
сюлэмшугъяськытӥсь
Гырон
Лулчеберетъя
стипендия
Удысэт
##алазыя
Дед
Дир
Даль
Искусство
Осто
Расс
молод
##очий
##ван
##вес
##иция
##нунал
##амылэсь
##отов
лыдыз
адӟиськом
тодметэз
удыссэс
учконэз
йыръёссы
сьӧрад
##каосыз
элькунмы
чеберай
кысконэз
лыдӟон
йӧтск
газетамы
югдурын
##оскрес
ужъёсыныз
куштэ
##аллург
Толст
дышетыса
адӟытонэз
мадизы
Калин
бызьылоно
фондысь
академиез
мугъёс
печатланы
пуктылыны
экономикаын
сапт
басьтӥськоно
йырсиез
Федерацилэн
синмыныз
сборнояз
валамтэос
Кондратьева
Тюрин
Припев
Вес
Дур
Хельсин
Шак
шымыр
##луг
##ыртэмын
##эл
##РА
туберку
улӥськод
пыремез
тыриське
##лыклэсь
курда
дасямы
быгатӥськомы
удысъёслы
кинотеатр
вӧт
вайиллям
пумиськылӥсь
усадь
дасяськись
заводэз
кужмоесь
##тӥллямтэ
дэмла
миндэр
удалтон
Оскиськом
киужъёс
культуразэ
пуксемын
магазинъёс
чемпионэз
эштосысь
Финляндие
Саратов
аналтэм
арлыдзы
Лыктэм
лапег
лушкемен
маялля
Тубылов
магист
УДМУРТ
Пузкар
Буз
Голь
ГУРТ
Паль
Сент
Хай
Щеп
бол
##род
##иев
##лес
##чат
##it
##онной
кутӥськоз
##иоссы
адво
##гасьёс
понедель
поттозы
адӟись
кырын
чаклалозы
тыршисьёслы
кӧты
нылпиоссылы
сыӵеесь
Туш
дуннелэсь
Ужъёс
нырысетӥзэ
пумиськиз
Гуртъёсын
книгаосыз
атайлэн
берыктэ
тодматскозы
тылъёс
финиш
бӧрдэм
бӧрдыны
175
##ировка
Андреевна
таукар
коллективез
кожало
мӧзмыны
выем
1986
механик
сборник
ӵектонэн
Будап
мамае
драмая
романэз
бригада
дэра
чырткем
педучилищее
конгресс
выпускникъёс
посёлокысь
Постол
ӧжытэз
Серебренников
грамотаеныз
пичильтык
га
нумыр
уезд
шимучыр
##оуст
##ремен
##бас
##чо
##алит
##озн
кыллись
таӵезэ
##ыме
Удмуртстат
Татысен
поно
каръёс
улонамы
выжъёс
##рих
сиг
йылпумъясьёс
Огвакытэ
вуттозы
Воршуд
##оосы
кариськем
вамыштӥзы
кузпалзэ
инвис
утялтӥзы
бусыосын
Семинар
администрациез
музейысь
ансамбльзы
##ифика
Президентлы
Беля
телеп
кенакъёс
Тросэзлэн
Вавожысь
вирус
Нуны
яркытгес
1944
юрттэтэз
Спортэн
Интернетысь
Груз
Калашниковлэн
толэзёзь
театрез
##ore
филармонилэн
экскурсиос
Наговицына
фотоап
ӝажыос
энергет
коляск
Бушмакина
Будапеш
Кес
безд
долж
чар
##отэз
валалозы
выламы
##икан
удмуртэн
##ешно
сюрслы
школаязы
синэз
воштӥсько
##важ
Ваньзэс
городлы
спирт
тунсыкъяськиз
шугъясько
пыӵалоз
герӟет
программаосты
шудонъёслэн
янгышъёс
улэмен
райпо
йылолъёсын
бызем
Путь
куазьлэсь
культуры
туспуктэмъёсты
пӧйшуран
ӵектосъёс
нуныез
ожгарчи
##асалзы
сузэръёс
Песяна
актр
покчиосты
историеныз
дискоте
бренд
пайдалыко
страхованиея
Палэзян
01
Иск
Оси
Шаб
Шуз
##алэс
##екрас
сюри
юртъёсысь
вормо
нунык
кивалтоз
люкай
кунъёс
Инмысь
анайлы
улосъёсы
пусъёз
##пиез
Мастер
улӥсьёсын
бертӥсько
тылскем
пушказы
куштӥз
утялтэ
u043c
паймытыны
ансамбльын
анаеныз
сэрегъёсысьтыз
нюлэсъёс
Югдон
Бӧдьяысь
вожвылъяськонлэн
эктонъёсын
Италиысь
Дуннеын
Агай
Тимер
мылкыдмы
наркотикъёсын
Пономарева
пединститутын
Бан
Немец
Сесси
Шер
Юанъёс
алэм
юонэз
##зе
##гина
##ЕЙ
##ӝол
##ерки
##атай
##еть
шуиськоды
ваньмыныз
##лозы
пуконэз
##ейств
##ократ
кунмурт
улӥе
осконо
лыдӟет
пӧраськ
выжыосы
Маиз
нылкышнолы
Глазове
кылдытонъя
ятырез
квартал
янгышен
Перву
Валера
вужмемын
туспуктэмез
кенос
нюлэсъёсын
йылэтыны
правительство
туризмез
быгатӥсьтэм
Писатель
Смол
развед
книгалэн
кадръёсты
Пельнянь
Ӧжытак
турнир
саес
вожмаськыса
Йылпумъянъёс
Митрофанов
Огдыре
Апр
Бере
Бег
Боч
Мыло
Оч
сылӥсько
шашк
##реч
ужаку
пуля
##итури
тӥысен
дырек
пырыос
адӟод
быдэсъясько
синме
кунмылэн
учкемын
вераськозы
ӝутонлы
шаермылэсь
семьяослэн
Ваньбур
чеберлыкъя
##остол
кенешсы
выры
черс
Серем
Верет
отчыозь
Стран
Троссэ
берыкто
луонлыкъёсыз
188
##ахметов
Петровлэн
кисьтоно
дауръёс
##тысалмы
директорезлэн
бызён
омырлэн
пуксизы
техникуме
вӧсяськыны
семь
##пподром
Кылбурчи
Ульфат
История
шугъяськытӥсь
сумка
микрорайонын
кышкасько
##ument
телевидениын
Серафим
Сипсик
Усточикар
муспотон
Даша
СО
Ятчи
мног
улысал
яблок
##РТ
##fo
##ФСР
##оста
##ызлэсь
##чизы
ворсазы
##ела
укра
пилы
синмо
вошто
воштӥсе
бордамы
##ыртӥсь
сураса
асьсэдыз
##дэй
Ившин
Пуро
ӝыныё
бӧрдон
вунэтӥ
Макаров
султэм
кисьм
артистъёсын
директорлэн
документъёсын
кыдёк
Набереж
##тантэз
Дорам
вордонъя
Фёдоров
Луэ
пуктэтэз
вадьсы
Инкуазез
Тукт
Екатеринбургысь
Мултэс
пророк
пуйы
Ымныр
Телевизор
РСФСР
03
Банк
Гиль
Лат
Маг
Нар
Север
жум
итӥськиз
мык
юись
ящик
##ялэ
##фия
##икъёслэн
##ияськ
##истол
##колад
курл
##альный
стиль
усьтӥськыны
арессэс
вуза
пумиськылыны
кемал
куспамы
ивортыны
Тросаз
утчазы
Адам
ортчытӥм
дышетӥсьёслэсь
##етэзлэн
##ртчизы
атаезлэн
вӧзтӥ
келяса
220
дауръёсы
вирзӥб
выемын
1984
урокъёсын
пужыос
жалялэ
сюлэме
дисципл
Кириллов
буйгатэ
кисыысьтыз
Мамае
дӥсяса
гурезе
Тукля
войск
##итарной
Быръёнъёсъя
Вӧзаз
тодматозы
волейбол
чилектӥз
Кристина
крезен
исследователь
переработ
09
Без
Выр
Училище
Шыр
бышк
зун
итӥське
искус
кеся
мытэ
робот
уӵы
##вис
##каме
##ылиос
##уртчин
кылль
кылтод
муке
карисьёслэн
гуртоосыз
поттӥ
лэсьтом
прото
гожъяське
##авно
##палаз
йырыныз
сыӵеез
йӧты
сӥс
кылемзэ
ивортонъёс
Герас
палэнскыны
Зэмен
112
малпаськон
вамышто
шулдыръяськонэ
##онэныз
##дэмын
синмаськем
быдэстозы
анаезлы
шундыё
жингыртыны
##ежиссёрез
кичӧлтэмъя
Пырак
усточиослэн
Сюлэмшуг
тэры
тодӥсьтэм
кылэме
Эрки
##аймер
ушъямон
экспедици
Исаев
юридической
Шӧдтэк
Гим
Гус
Зем
Руст
Шах
лет
##ули
##ӟиз
##ЬЯ
##ртӥз
оград
вералля
##гаысь
##газы
пырод
басьтод
лэсьтӥллям
##нилэн
эшлыко
комбикорм
кыштыр
удысэт
выже
сюлме
возёзы
чеберлыкез
люкаськы
коллег
данъямын
валэктоно
шарае
куараеныз
шутэтске
гажасьёс
Карп
партие
колхозлэн
пушкыз
##ылӥськод
троллейб
самодеят
лымыез
киоссэ
Доразы
магазинын
кадет
связь
пыӵатэ
Петербурге
южтолэзь
кружокъёс
Шкляева
Труд
юмшан
педагогикая
Тарак
супер
##агноз
Форум
тачак
Июльское
охран
Туймыйыл
Бум
Мот
Чак
иж
тоже
##шивал
##оми
тулы
##илен
дырмы
каремзыя
202
промо
эшеныз
висъяськись
кыксы
полк
киноф
Ужъёсты
Ужтэк
туэлы
будэтонлы
пумиськылэ
сюлмаськемен
##ортеп
йӧлвыл
машинаосын
тодматскем
ортчытӥське
урамъёсын
u0434
султӥзы
кисьтӥз
поттонын
поръя
Ужрадын
пери
дасясьёс
иськемлы
транспортын
ньылез
вуылыкуз
Вятск
ворттылӥсьёс
Яковлева
Кубист
кафеын
молоко
Булд
ӝожтӥськонъёс
агропром
Плотников
Прокопьев
великен
Агрыз
продюсер
##номоченной
doc
Сне
Титов
Хим
дот
каль
пляж
Ӧс
##пис
##ханова
##оновна
##алт
##оскыт
кутӥськ
##акс
вылад
улам
веръяны
##етӥсь
потам
нимаськиз
радазы
пиналыз
сямез
пыриськоно
пыриськемзы
сильтӧл
йырй
героез
тунсыкъяськисьёс
сюлмаськыто
пиоссы
Пичиез
пыӵато
садике
крас
классъёслы
кузпалэныз
кузёяське
чиданы
##ёнозь
Дэриысь
сётъяло
атайёсын
макеос
быръёнъя
корказ
Нылпиослэн
Дорын
законлэн
кышкытэз
выльдӥське
ӝутк
актив
тэркы
кечато
Интыысь
шока
песянае
финалэ
ВИЧ
мандатъем
Ужберга
вишты
Дём
Лаз
Неч
Обор
СМИ
Юалляськ
гад
жиз
пеш
укол
чек
чис
пуль
##ико
угровед
нылыныз
каремезъя
##ашев
утисьёслэн
адӟемез
дасяй
дасмос
пиналъёсы
##ляй
Соосыз
воштӥ
мигра
экстр
вузамын
учыръя
газетъёсты
газетмес
Гербере
##осызлы
ортчытъяськом
палэнтэмын
кизэс
кыстӥськозы
Серги
кариськоз
шудонын
космос
Сарапулэ
паймыто
ӧръя
чузъяськ
вормонэз
туспуктэмъёсын
материалъёсты
эстӥськ
дурбасьтӥзы
басмалэсь
государст
Воронцов
валасьтэм
##изациез
Кибард
виноград
Черкогурт
мачке
норма
тӧрлыкъёс
Кивалтэтлэн
##УЛЛИНА
04
Дик
Руф
меб
рецеп
тыс
чаг
##ред
##коз
##ланд
##шок
##гент
##КОН
##ul
куг
##етыны
ужъёслэн
пуктӥм
пуктӥллям
эшъяськыса
коммер
чакласькомы
кылдыло
люкизы
вайылӥз
##поттон
книгаын
визьмаськ
утёнын
Улонэз
берыктӥзы
йӧлын
Тодӥськоды
Калыккуспо
ватонэз
тодматскыса
усизы
утчаськ
пушсэ
шудонэ
концертын
службае
изъёс
интыяськизы
##ирование
дӥсьтэ
атайёсты
лыдзыя
вирсэр
лагерьёсын
улыно
Кион
инструктор
юатэк
Дмитриев
выйиз
##ТЭМ
Мерз
командирез
бюро
Маркс
Челябинск
Ансамбль
адӟымтэ
башня
Мырдэм
Кудряв
Бот
Вало
Иво
Кел
Лина
Ыму
бадь
усы
##ранъёс
##дия
##хтов
##шап
##ъемын
##юш
##фа
##омес
уллань
сюлэсь
##истан
сюрон
палэзь
выльысен
кутскы
кутскись
гожъяса
радызъя
висъяськыны
шаерез
##касько
сюлвор
ареслы
тунсыкъяськись
кылемъёслэн
герӟало
сюлэмъёс
ыштӥз
Пургаысь
утялтэм
нюръяськизы
пӧсьтурын
##ылӥськомы
Комиысь
##ности
пыжиськем
осконзэ
вурыны
Азьвылгес
Шоро
пурк
##ствен
кубометр
вандоно
кисыр
балет
эшъёсызлы
вытъёсъя
кесяськ
Огполаз
мынӥм
жаляськы
музеяз
##КОВА
билетъёс
Фестивальлэн
хими
ворттылон
Вершинин
Огкылын
Гудыри
Ганьков
##утой
эксперимент
Директор
Мерзля
08
вс
итал
##ней
##тизы
##ъе
##цеф
##болэн
##аниос
ужат
пуэн
##омыны
поп
быдтонъя
дунэз
быдэсъяно
синъёсты
удысъёсысь
Александрова
Валля
лыдӟисьёслы
Пихтов
тонналэсь
##ераторъёс
Котькудаз
тодматским
дураз
Егитъёсты
тылэз
ортчытӥмы
ӝыныезлэсь
синмаськемын
сётъя
Ави
артистъёслэн
вужер
ӧрын
тырмонэн
Подшивал
диагноз
тодосчиослэн
Сига
кузьмало
йыртэмась
гожтэтэз
##институт
Дмитриевич
терапевт
Пусъемын
Эктоника
Лебедева
Вершинина
спартакиадазы
правилоосты
шуэрес
##нефть
Финалэ
Берат
Всё
Рам
Руч
Тылобурдо
дарт
сабыр
шкаф
ӧрез
##тека
##ИТ
##lo
кутонъя
луиськомы
шуиськомы
улӥськоды
##рация
##работ
тырозы
дышетскы
марысь
кенешиськом
105
кузьда
сюлмаськизы
культураосты
Матэк
музъемен
толэзьем
уксёзэс
##ылэмзы
иворъёсын
пушй
пыртэ
##иханов
яратонэ
висёнъёсъя
кузьымез
синмаськиз
мадён
Гриша
ветлэме
радъянлы
вырӟытыны
1978
произведение
Фестивалез
##салзы
Пересьёс
тодӥмы
форумын
буёлъёс
программалы
Яковлевна
Кутсконэз
Дементьев
лапас
постановление
продукция
тятя
тупалоз
Чечняын
бекче
услугаос
сьор
винтовка
Камен
Мод
Неб
Пыж
Рев
Рог
Сед
Сыче
СМС
кав
лӥ
ысто
##быль
##ИД
##ёсмы
##ализм
##азу
##оди
##ики
сял
##раст
дышыны
юрттэмез
вордӥзы
Кусп
песь
будон
##агурт
эскеронлы
спортлы
спортивной
спорткомп
спец
кузьдалаез
урдск
Верам
ёзлэн
вӧлме
берыкты
чидаз
воргоронъёсты
висёнъёслэсь
нокинлэн
чуръёссэ
Наталь
дэремез
пыже
школазы
тӥрлыкъёс
бызи
выжыкылъёс
Справ
Таза
мылкыдызъя
солдатъёсты
уськыто
вынъёсы
пунэме
физикая
военно
вылӥынгес
Ахмет
эстафета
рейтинг
Бюджетъя
система
Швеци
сюлэмшугъяськытэ
Карелиысь
Бадретдинов
христиан
Вид
Дыды
Теп
Универси
Ша
Эдэй
епарх
иде
магнит
пистол
##стэз
##оруж
ужаськоды
##ции
##идэс
укыл
дасэтӥ
чакласько
лыктӥсьёс
Мари
##каосысь
сурал
Сергеев
Калыкын
федераци
службаос
дышетсконниосын
Яркыт
управлениысьтыз
дӥсьтытэк
администрацие
поромы
адӟытонын
Ёросамы
авторзы
удалтэм
коркаосы
шуэмын
йӧнала
Артистъёс
кӧснуналэ
1961
компьютерен
репрес
##ушки
Пусъёно
##ангель
Чылкак
Терский
шӧдытэк
мадьыны
эрикрадэз
Социальной
##лимпийской
ролез
кускерт
ганяк
Эркишев
mar
Вы
лысь
паськ
юам
##дъёс
##име
##zh
##она
##онович
ужатоз
##стан
луиськом
лулыз
ныллы
##ашева
##нисэн
##елов
Куин
кырым
##ектив
курбон
пусъёс
воштӥськизы
Валасько
##онъяз
ветлоз
Ужам
вӧс
кыда
Можгалан
ансамблез
Галиханов
азинскиз
адӟытонэн
квартираын
чузъяськоз
лулчеберетлэн
пӧйш
Борисовлы
Туспуктэмъёс
залаз
ӧнерчиосты
Санко
майор
инструм
750
шузим
кампет
пурты
ёрмон
юбилеез
направлен
Аслэсьтым
палъёсам
туристической
мачк
##ТРК
Улэп
Белоруссиысь
пьесаезъя
Творчество
бездыт
италмас
Бератаз
Дер
Сӧ
Тамак
бе
визн
орт
шриф
##eb
##ется
##мыж
валэз
##едлэн
иннова
юртлы
кулэмын
##огол
##елина
##ийной
сямъёссэс
кышнозэ
полиг
стратег
воштоз
оскытэ
люкаськыло
вайёс
##уппа
##писка
вордско
кивалтӥсьлэсь
ёзъёсы
ӵектыны
классъёсысь
кышномуртлэсь
парсьёс
пуштыл
ӧдъям
куштӥськем
узыргес
ышты
Ярат
u0432
матысьгес
возьмаз
возьмась
анаезлэн
берытскы
##ояр
бызись
бурдъя
ӵектосъёсты
темая
курсъёсты
куарусёнозь
##башев
уськытыны
метрез
пилемъёс
Татышлыысь
вузкаронъя
тренерез
матэктӥсь
##олланд
##валег
Экономика
Тодосчиос
учёной
позыръяськон
Ветеран
снаряд
Ураськин
Ксюша
шорсюлмыз
Ымусь
Бич
Зо
Худож
ков
##виль
##елэ
##сек
##тыло
##ment
##гам
##бит
##ИЯ
##анчи
##скинь
луиды
публиц
Соб
вуиды
##ияр
карез
калыкмылэн
кутскемез
пиан
пиёк
кивалтӥсен
тыршон
сьӧрлось
данзы
вожпот
##кино
пыӵатоно
биология
азьлогес
кужымзылы
##ъяськомы
законын
##игр
гажамон
Вуиз
мугорын
пӧрмытыны
лекция
Викторовна
Курья
чузъяськем
юбоя
Евгеньевич
улӟиз
Бурай
синйылтӥ
талант
ошмесъёс
жалян
Гурьянова
бумагаос
операциос
нюръяськоно
Ӝытазе
туристъёсты
песянаез
Бюджет
Молот
тэтча
Лебедев
##ибориё
ляльчи
Августа
монограф
Москов
document
Иуд
Лон
Нап
Стат
Тым
ги
рак
режиссёрез
эсьма
юск
ӝоже
##пӧр
##ef
##хов
##ший
##51
##ерил
##акез
##ошка
сюп
##саос
каремез
кариллям
юрттылӥз
котрес
выльдӥзы
Рост
Куеда
кыказ
##естер
быдэстӥ
йылэм
пиналзэ
быгатӥськод
выжем
кӧй
шудозы
колбаса
тырмытэмын
йӧлзэс
186
кельшизы
театрлы
акциос
дышетсконме
праздникъёсы
пень
просто
музейёс
берытскизы
юанъёссы
мугъёсъя
центнерлэсь
Кизнерын
выльдонъя
Учкы
выльдӥськонъёс
Вордскемын
Невский
инвалидъёслы
Ӵошатсконъёс
арлыдъем
начальной
Тимур
##ройство
реги
костюмъёс
сезон
##тальян
кырзан
ӵошаты
песятаез
шокчыны
Компьютер
снимать
Мухамет
Сидоров
мускытлыкез
экземпляр
Восточный
конверт
Оломар
Рассвет
адвокат
var
Чуз
бра
лыс
носк
Ӵап
##ео
##нис
##акин
валаськом
огреч
быдтоно
кулэез
##ава
Россий
азяды
бутыл
огазеясь
шаерзэ
котькудзэ
кенешо
кылдытӥ
кылдытыса
люкаськон
Арз
Арсен
Алтай
улэме
газетмы
палэнтон
##ерсон
тупатъяло
ватса
кышномуртэз
вамышъяны
шумпотэмзэ
предприятиосты
федерацилэн
бича
Прас
Берлоез
кылзо
сётъян
янгыша
дыртытэк
бакчае
быгатонлыксэ
Ураз
мугзэ
вормонъёсын
магазинъёсын
пӧзьтыны
Герберын
1929
коньывуон
йыртэман
басьтӥськозы
тыршеменызы
Ожгар
возьмасько
укмысэтӥ
делегациос
ужкагазъёс
Вӧё
кафедраен
арамаын
##ТЭЗ
профессиональной
Пилле
староста
земля
аскивалтон
Слава
Рудольф
Варламов
Мукш
Волгоград
Газе
Дис
Жур
бамын
гин
гира
нак
пыкыл
реж
ӟоскыт
##нес
##лайн
##гай
##гиль
##фли
##10
##оверен
##олк
кылъёслы
сяртч
тодымтэ
##кей
нуналзылы
эшъёссэс
мылкыдыд
Валтӥсез
##каослэсь
пумитай
пумиським
##ранич
пиосмы
кужыменыз
вакытсы
187
просгес
миним
Шуэ
Авст
турынэн
Перог
Бород
Вавожын
бызё
1982
библиотекаысь
пурга
кӧтсы
арганчи
пытсаны
липетэз
сӧсырмыны
тямысэтӥ
ужбергатӥсьёслы
национально
Паймисько
Лыдӟисьёс
Армиысь
Архангель
быгатысалзы
казна
сьӧрамы
можно
дӥсяны
зурка
поселение
Мускоын
олокытчы
ассоциацизылэн
творчествозэ
Своб
ТРК
##луги
лыдӟетъюрт
Сӧсыр
Дӥськ
Мисс
Нен
Фольклор
ваське
равно
сесс
уя
упол
ханты
##ляськ
##ГС
##енит
##есло
шудӥсько
огнад
##истикая
торт
мынод
мылкыдзыя
кунъёсы
пыриськылӥз
узвесь
тыршомы
теор
шедьтӥмы
Котков
котыразы
люкиськиз
тодмоосы
пӧраськыны
кылбуръёссэс
вазиськисьёс
амалъёсъя
обид
уйзэ
Аслад
номерзэ
вожвылъяськисьёс
партиослэн
Колес
##ёров
Аверки
судить
сэрттоно
1983
семьяоссы
пуром
кылбурчилы
балалай
кулэяське
Егоров
Поезд
эстӥськонлы
инфля
тырмымтэосты
Класс
дӥсяськем
Закон
Рустэм
Русских
Юрьевич
перепечен
интерна
мусое
экспедициос
Леонтьев
асэныз
Жанна
Токарев
Кокор
Бесерм
календарь
гвардия
Сбербанк
исследовательской
ВАЛ
Гул
Мас
Республи
гыб
эв
ӵышк
##рич
##хаз
##чной
##инам
ужатыны
ужаськод
арезлы
##отип
валтэ
##ожение
дышо
карантин
юрттыса
басьтылӥзы
тодылы
нуналэныз
нимынызы
улонмес
Куамын
пиезлэн
поляк
учкылӥ
улӥын
оскисьёс
##аоссы
Ингож
##каоссы
Огыр
таӵеос
данзэс
хозяйствое
музъемлэн
u04e
крезьгуръёс
кысон
шумпотонэз
вамышлы
дышетӥсьлэсь
лэзёзы
пушъет
заводъёсын
потыку
дӥсьто
атаезлы
аппара
люкето
орг
Адямилы
пыжо
лэсьтонын
серекъяло
вайыто
Борисовлэн
будэтонын
арганчиос
Амал
мылем
кызьлэсь
Асьсэлэсь
Микаль
матэктэ
келялозы
бугыртӥз
йылпумъяме
Экономикая
Арлыдоос
Челны
симпоз
произведениосты
учёнойёс
укшась
пятница
Пантеле
удобрение
пуштыт
перепись
пастух
мотоцикл
синучкон
гостиниц
Мамонтов
Тараканов
Шуб
виктор
лӧ
миськыны
себя
япон
##АС
##МАТ
##мышо
##строй
##тэмзыя
вуисько
##ъяськемын
ныллэн
##дыя
##дыгар
гуртоосты
интыосыз
басьтӥськомы
нимъёсын
медэ
##андэ
курень
2019
Вали
пумиталозы
люкаськиллям
Писэй
музъемъёс
визьзэс
u042
малпанзэс
палэнысен
Азьлан
Сергеева
номеръёс
Таӵеез
театральной
узырмиз
огъяросси
бюджетлэн
кылзӥз
Школаысь
эшъёсылы
Нылпиосын
пенсиын
юанъёсынызы
шоркарамы
турттӥсько
омыре
жугиськон
Парламент
пӧйшураны
тодэмзы
кышкатск
йӧнтэм
правоосыз
пӧзьтоно
Новый
святой
Энвиль
шулдыртозы
Афри
сюлмысьтыз
Картэз
шобыртэмын
зӥбыт
абитури
эрказ
отрядъёс
Германие
каньылгес
рольёсты
ёрмо
Скор
##ЛАТОВА
Чуршин
экскурсия
Тимофей
пыдкук
дыдыос
корреспондентэзлы
сотовой
улосчиосмы
благоуст
Лыдпусъёс
Первухин
Маль
ОАО
Рас
Ферм
Чум
ато
плю
Ӟан
##кыль
##гозы
##еныд
##ыкаре
валтӥз
валтись
тусын
улляны
вераллязы
##ъяськод
##ъяськытэк
удмуртэ
азербайдж
чакласькыса
вераськимы
тыршом
кошкисько
чеберлык
кенешонэ
азинтоно
вормоз
##астыр
вато
номеръя
кузпалъёслэн
кушем
чидантэм
##асьёслы
вордӥськи
вунэтыса
кышное
аспӧртэмлыкез
артистъёслы
ӝожтӥськон
таизлы
йылолъёссэ
дӥськутэз
кортлэсь
залэз
ымнырзэ
Адӟытон
мозмытон
президиум
кызъёс
шудэмез
Клас
азьмуртлэн
организаци
мылкыдмес
инспекторъёс
##ытозям
диван
зоопаркын
председатель
галерея
Быгатонлык
уртче
кыдёкысен
Рустам
Австри
Гуз
Дя
Сели
Усо
ФО
днев
имен
пыш
сельхоз
фортеп
##оесь
##ниосты
##сьтыр
куч
##ском
##аськозы
вуылӥсько
##ъяськемзы
##исьес
нуналъёсыз
выльёсыз
школаослэн
стол
клин
шедьтӥм
##ашкалазэ
часъёс
ивортонын
пудолэсь
процентаз
125
183
кыкетӥяз
театръёс
интыоссэ
вуоноез
уродэн
сётылӥзы
кожаса
Медаз
ӝутскоз
серекъян
сылоз
зоро
ӝужда
Зарезь
быгатэменыз
выжыкылысь
Киясаысь
ветлэмез
вуымтэослы
Киев
январ
мозмытэмын
погыль
Шундылэн
##КОВ
буйгатӥз
Алёша
Колхозын
##201
техникумез
пасьт
отделлэн
кылдытэтэ
ыстыны
демографияя
Сунцова
рабочий
##вигат
##далае
Аркашез
усыкмытӥсь
Поволж
Сепыч
БУЛАТОВА
Мылысь
Клавдия
Седова
Go
js
Прос
Пыш
Сыл
Умо
асэс
ипподром
кноп
мазэ
нон
##кер
##фор
##алэз
##азылы
##адес
##адае
валалоз
кылъёсы
##омен
вуиськод
сюдӥсь
таосты
##ъяським
ёросэн
##янъёс
выльдӥ
выльдо
улонниос
проз
праймер
Купол
##апай
адӟонэз
адӟиськоды
берлозэ
йылтэм
кырӟасько
пыриськылӥ
шедьтӥллям
котырзэ
Ужаз
лыдӟемен
журналъёслы
садлэн
кивалтӥсьёслэсь
Стё
дасяськем
космонавт
гужемлы
уродэсь
вожвылъяськыны
ватсаны
чурен
километр
мерттон
школамы
бызьылыса
##люд
академие
культурно
ӵошатсконлэн
1976
1967
##гизьы
мозмытыны
площаде
пуксьы
кырӟасьёсты
Европ
юалляськон
юалляськыны
мушъёс
Журналистъёслэн
Басьтом
Казанской
концеп
Золотой
быгыль
туйлэсь
Дагес
мозмытскыны
заслуги
Афганистанын
Суворова
Решет
кичабонъёсын
типограф
Сталинград
проблем
Крылов
Секталазыя
мукетэсь
гинек
Аля
Вяз
Знамя
Лыз
Лял
Некрас
Хр
апа
воскрес
для
зыныз
ид
обр
паш
сылэм
##оосын
##венной
##дом
##мест
##чук
##щё
##ИМ
##ПП
##gin
куа
##амзэс
##стра
инсьӧр
огкад
##иклэн
адзы
##исов
пыраз
потӥллям
ортчемез
потом
ветт
писэй
пиналзэс
воштэмын
вераськонэз
сяменгес
сяменызы
виён
Огназ
сӥлен
кивалтӥсезлэсь
газетмылэн
герӟаз
суредамын
Люда
ужамысь
##иноысь
дасяськом
фестивальлы
кышнояськ
атаелэн
ӵыжак
поттонлы
Автом
Шаермылэн
метрлы
сэрттэмын
лымыялоз
киосынызы
1972
шонертэм
Гужемзэ
1958
Дуннелэн
##изацияя
нюлэсэз
вӧйын
контроль
Ермаков
комплексын
прокурор
заочно
декор
страховой
сразу
комнатаен
автобусэ
можгаос
эмеспиез
Тулкым
теннисэн
Чудья
археолог
медсестра
зундэс
Оборон
ГОЖ
Нива
Пара
Таджик
Шеп
уян
ха
##дыс
##еын
##леб
##бу
куаж
##ства
##ыдэ
кылӥсь
##айын
##ъяськемзэ
##ъяськытӥсь
##язев
палзэ
##елла
##никен
куриськиз
быдэсмы
сямзы
усьты
чеберъяськон
амер
айиз
пиосъёс
Азьпал
вуэмзэ
крезьгурлы
кысыны
Эштос
дасяськыса
дасяськоно
кушман
Макар
султӥ
куасъёс
сяськая
Пиналъёслэн
паськытатон
кисьтыны
мерттэмын
эшъёсме
сылало
кышкаты
Максимова
1947
пургаос
Кезын
кынм
Ӵошатон
киноын
1979
Эстоние
Академ
гожъямъёс
странаямы
Пислег
Вордскиз
номинациосъя
кабинетъёс
ӧтчамаз
внуч
интернетын
шоколад
демократ
Башкириын
приват
кадръёс
арама
палаталэн
Самсонова
учётэ
диссертаци
воштӥськонъёсты
Ватсаса
заявление
устозэ
Мӧйы
департ
Бас
Гир
Луш
Паськыт
Раш
Сух
кит
пань
рам
тет
чесно
юсь
##ъят
##есант
луылӥзы
шуш
валтыны
##евский
ваньзылэн
##лой
##етӥзы
юрттӥське
басьтӥськы
сётӥмы
сётысал
дунъялозы
медад
кури
чаклаз
огазеяса
ӧйтӧд
Инф
эктыса
шорамы
анайёслы
олокин
герӟась
ортчытонлы
##гуртъёс
администрациеныз
##ылӥське
лыдпусъёсын
Шуак
пӧрмытӥзы
курадӟисьёс
куашкамын
ыстэмын
Пусъем
фермаысь
гидэ
конференциез
тубыны
шуэме
войнаын
Азинск
тӧроезлы
курсысен
##парат
шокан
быремъёсты
Лушкем
Мылкыды
инвестици
милицие
нюлэскысь
Майя
Кельмаков
автомобильёс
пединститутэ
Азьмуртэз
эстафетаын
юзыр
##уманитарной
специальность
этнофутуризм
мобильной
Ӟатча
шарканъёс
##гильды
Аверкиева
##МАТУЛЛИНА
Зям
КОМ
Лэ
План
бара
един
ичизэ
мыт
следовательёс
фи
ышо
##варь
##талэн
##гиз
##цовлэн
##бы
##ik
##ени
##енский
соб
##мытэ
кылимы
улом
ёросъёслы
каремзэ
соосъя
басьтӥськоз
сётэмез
пуктӥмы
прол
мыном
мынӥськод
отпуск
висъяськом
быдэсъяське
чакланъёс
##аосысь
Марков
##остав
книж
газетлэсь
пиослэсь
Пичиысен
шуггес
улӥсьёсыз
атаймы
кресло
##инген
йӧллы
тупатъязы
Эшъёсыз
пушнер
кузпалэным
клубен
пиял
дышетсконзэс
дышетӥсько
атаеныз
апостол
Волковлэн
люкетлэсь
келяллям
кылдэмен
первен
огазеяськонъёссы
сэрегез
вуриськон
Быдэсак
ӧтчамын
##ВАЗ
правооссэ
висьы
сказ
погыл
Шулдыръяськон
гуртъёстӥ
Армиын
возьмаськом
тушмонэз
Хозяйствоын
инвестициосты
##тэрек
Агафон
##ГАМАТУЛЛИНА
каникулъёс
аспирантурае
Залын
Пантелей
НИГАМАТУЛЛИНА
Богданов
сигарет
Панф
Чернобыль
АвтоВАЗ
Образцова
##ливая
Кризис
Смолен
украин
im
Ефим
Ил
Кара
Сева
Селы
Уп
Фрон
Яку
васькиз
касса
неп
пек
##ащ
##атэн
##оприят
##лент
##ӟе
##ӧм
валь
##един
##екч
Собр
вулэн
карлуд
наук
проезд
отмет
чакланъя
муртъёслэсь
муртъёссы
ӝуаз
осконэ
семьязэс
кошкозы
йылпумъяськы
выроно
##шко
##тозязы
кырӟанлы
вордске
атайме
Астэ
усён
кылдытозы
куараоссы
шунытгес
уждунэн
Петрозавод
кышноеныз
апте
Наташ
берытскем
Дэбесэ
Медиц
230
Урас
нуллоно
наукаен
1946
улӟыса
чорыгез
подвиг
кынмем
Дышетскисьёс
транспортэн
правн
свар
1956
политикаен
Металлург
визьнодась
сётске
##ационной
пьесаос
Законэз
ульчаосын
ньылетӥез
Абрам
суредасьлэн
бесерманъёс
Валэктон
Кутян
ыстоно
кивалтисез
кеськиз
Попова
Молодая
Ӟечкыласьком
Моисей
Кибардина
Брон
Вик
Жуй
вик
олимпи
сач
тысез
##прос
##пиосты
##ую
##Ele
ужед
##отехника
пуз
##каш
##иллер
ваньмылы
каремзы
поттӥськом
гожтӥллям
Куат
адӟоз
быдэсмоз
кышкай
учком
тыршоз
сьӧсь
эскериське
юнмаз
кенешъёс
сурон
вормыса
ужасьёсыз
кылбуръёсты
вазиськылӥзы
1500
садъёсысь
луэменызы
ужаменыз
министрлы
тупатъя
184
шумпотӥськом
скалэз
кушто
##асьёслэн
клубзы
быдэстоз
гектарез
кожасько
факультатив
Шумилова
ӝутскизы
кулэсмы
серектэ
бамъёс
1940
Натӥ
воргоронъёслы
Баймур
буёлэн
эштосъёсын
кылӥськы
нюръяськонлы
ветлӥсьёслы
синмаськымонэсь
кризисэн
Кулаков
ӝегатӥзы
##ort
огенымы
кафедраысь
самолётъёс
Слес
может
Новгородысь
чошатск
Тодосчи
полиция
Гидромет
Гаврилович
приставъёс
Шудегов
КПСС
Дальний
##Element
XI
Выт
Га
КФ
МАФ
Пел
Рая
Шат
дерев
действ
розы
чор
##залэ
##казэс
##лоз
##ъетэн
##яс
##онор
кутӥськом
##ыкуды
луиськоды
шуиськод
кылъёслэсь
##асий
##сиез
юртлэсь
##лыкъёс
дышетоз
поттоз
нуналскын
ниманы
улонни
мукетыныз
кырмизы
удысаз
##ӥськем
учкылӥзы
Монэн
строй
тыршемзэ
##онэзлы
ярало
ужпумлы
кылдытӥм
кузьгес
сюлмаськиллям
данъя
ӵошатсконъёсты
Коньы
куноын
ёзын
слес
йӧллэн
законэн
номерын
арнязэ
азьланьтӥськоз
проектъя
Прик
##ондэс
нокинлэсь
дасяса
Шудбур
бакчаяз
алонъя
Ураль
##аниея
бамез
ӵужан
Кивалтэ
кабыл
Байс
кидысэз
Юкаменскысь
пумиськонъёсы
1957
Пукон
музеен
водительёсты
Франциын
филармониысь
пуртэн
Вӧсяськ
папа
Украинаын
Глаф
теплиц
Рафис
Сыктывкарын
Механизатор
Нефтекам
вавожъёс
Ключиысь
Парзиысь
Чакара
число
мебель
кугӟ
Справед
margin
АССР
ГРУ
Лаб
Пыл
Паст
Роз
Руль
Сев
буртчин
итальян
##школа
##шинлэн
##ъект
##тэлэ
##сконо
##стук
##одной
##кач
##тэммы
##ӧля
Удмуртлыкез
муж
##гатэк
сямы
палъёсазы
Ростов
гожъяй
адӟимы
школаослы
синзэ
быгатыны
муртъёсыз
Марӟан
дышетӥсен
йылпумъясь
Огнам
улосъёслы
кенешаз
котырысьтыз
йӧназ
ӵошатскизы
кивалтӥсьмы
палэнтӥ
фестивалязы
##оослы
шурез
сэре
центрзы
грек
витьымтэ
бичано
квал
спортсменъёсын
номырзэ
энцеф
суль
сяськаосты
радиолэн
анаелы
куашканы
июн
Рома
гуэ
Красноп
асьтэлэн
балезин
пыласькон
сюлмаськонъёссы
Радъясьёс
сортэн
вандӥськ
узырлыкъёсъя
##ТЭТЭЗ
туганэ
##ТИСЬ
демография
лесничество
Постников
##зянов
пятницае
рынокын
условиос
дояркаос
Казахстанысь
Филармон
кымес
Наркотик
Корнилов
Тупатъян
коррупциен
диджей
Черезов
сигнал
режим
Goore
МАФУН
Ёл
Вук
ГТРК
Добр
Зин
Лиз
Порт
Сор
Сма
ЫС
или
Ӟыр
##жант
##гез
##ЕЧ
##ОЛ
##ИЙ
##ДР
##уновлэн
луом
##аськытэк
сюрыса
сётом
асдун
монастыр
утисьёслы
прил
прих
##авиль
##окын
быдэсъям
тодмато
выжо
ватэ
возёз
Марат
кылдылӥзы
выриськом
яратӥськом
##ипова
малпанме
Сталин
##ахмет
изе
процентэзлэн
дӥсьтон
##ецк
Гердэз
Правительствоез
Ёросъёсысь
Кама
Толэз
электрик
240
больницалэн
ӧтчало
тӧролэсь
сайтысь
бергаз
1962
ожмаськем
вуылоз
Шундыкаре
станциын
дэмламын
фильмъёс
Одиг
комбайнэн
Ушакова
ярдураз
Зорин
воштонтэм
педучилищеез
сменаен
Шайтан
полицие
Балтачысь
наркотикъёсты
нарколог
##омплекс
вайытӥськом
Кожев
мемей
Симон
Конституцилэн
фамилиез
кибыос
Тэшкыл
возьытэ
Богданова
МТС
видеокамер
Шаплы
АПОСТОЛЛЭН
рядовой
шашкиен
ГОЖТЭТЭЗ
Справедливая
ЫСТЭМ
Атас
Менд
Пог
Пьес
Слов
Юськ
гул
трад
тарк
утэм
##ря
##сев
##беч
##чникъёс
##овалэсь
пуме
выли
##ноез
##тӥськоно
##евед
##гае
ортчыку
потатэк
пуктэмезъя
##никлы
##ества
азяд
синъёсы
ӟечомы
усьыса
вераськи
тыршим
коньдонлы
шори
Котельников
пумиталоз
люкиськыса
##ипья
часлэсь
Маяк
толэзьёс
министрен
Элькунмылэн
луонлыкъёсты
кельшоз
дасяськиллям
кузёоссы
Проз
пияшен
бусыосы
колхозэн
вашкалаез
нокинэн
Васильевлэн
поръяны
артистлэн
улытозям
Борисовна
кылбурчилэсь
ваньбурзэ
тодэмзэс
Путинлы
1975
асьтэлэсь
лыдм
уськытэ
шулдырто
очк
тодӥсьтэмез
Педор
Фестивальын
уллёез
Зорина
узырмытыны
лулчеберетэн
Питер
Афанасий
Ӵемгес
Мерлыко
##едиция
Школалэн
Почта
пильмаськ
агропромышлен
Биянов
Пчел
аудитор
ожтӥрлыкез
уполномоченной
Дягел
Глафира
Аст
Вели
Тут
вос
дыг
рул
филь
юано
##ню
##ra
##губ
##цизэс
##ТП
куиськон
##ары
##арке
уждэ
##отикъёс
##акел
##ышников
##аськисько
тапала
##чие
потӥськод
котельной
лэсьтэмез
кутскеме
медакадем
дышетскисез
выжъёсты
стацион
вераськемзэс
оскал
нылпиосынызы
шаерчи
шудэз
102
Кытӥ
хозяйствозы
Маск
визьзэ
Конт
кивалтӥсьёсынызы
Одӥгъёсыз
тодматске
быръёз
законлы
Эше
ортчытыса
кузпалыныз
клубез
спортсменмы
уждунлэн
косон
лыктэмъёсты
быгатонлыкез
электрот
кулэсмем
##ъеслы
мероприят
академия
улӟытӥсь
специалистъёсын
ӧтчазы
законлэсь
вандэм
1973
Чеберина
телеканалын
Ортчиз
пыла
кызё
калленэн
##утбук
Висись
Армия
вотэсбам
пуксёз
обществолэн
Екатеринбургын
тӥясьёс
Печатья
пилемо
ивортодэтъя
Кылдэмез
МТЗ
##edia
ЗАГС
табанен
эграос
тысё
паськытэсь
Прасолов
первенство
КФХ
u00
АН
Баш
Буг
Кит
Наб
Ципья
Япар
дав
нем
следователь
##сад
##ne
##цкий
##ерна
##ена
куакъёс
кылчин
тыронэз
вордӥз
потано
пукиськом
провод
пример
##никъёсын
кыкнамы
пыриськисьёслы
вакы
тыршы
Инна
##абей
юнэсь
кыӵеесь
кыскиськом
Пионер
нуй
садъёсты
толэзьзэ
кизё
Стади
малпаськи
лякыл
185
кылдытонлы
тылгизьы
шунытсэ
куштӥськы
бичазы
клубъёсын
клубъёслэн
урамъёсты
Ярын
праздниксы
коллективлэн
анаелэн
гордкушман
профил
дасянлы
Шораз
сӥзьылозь
Парф
кырӟанъёссы
йӧнатыны
буёлэз
жингырто
куасьтон
хореограф
инженеръёс
Константиновна
тэрытск
Олимпиадаын
плак
Камбаркаысь
возьмаськись
гадьпус
пудозэс
арескысен
сентябрьысен
Пумиськонын
Разин
онлайн
##age
велосипедэн
Чекерил
кильтро
Пазял
группалы
Апрель
Буммаш
Ручкина
ГРУПП
Бус
Галь
Тал
УЖ
алям
жади
роз
сель
ӝо
##ось
##ват
##валь
##цъёс
##енникова
шуид
##айко
муос
##истанысь
ортчылэ
##онъёсмы
малпалляй
##рамы
радъялозы
бери
эскеронъёсты
кылдыку
чеберайёс
котырзэс
Ард
пӧрмемын
##оскалык
##оослэн
гурын
ужаменызы
лэзи
кузпалъёсты
бичамын
интыостӥ
сутэр
висёнлэсь
колхозъёс
Шуисько
премиос
басьтэмъёс
жингыртэм
нуллӥсьёс
емышъёсты
##тылыса
Светӥ
тӧрое
Краснояр
Буранов
Газпром
мултэссэ
шулдыртыны
капчияк
ворттыло
чырс
баллъёс
диктантэз
Яратэ
службаяз
советской
сисьмем
калгись
скульптор
пединститутысь
дуннез
Кызыл
керетонъёс
мыжык
баскетболэн
самолётэн
леген
рукоп
Вортча
пермяк
Стёпа
Обороная
Лом
Режиссёр
ШКОЛА
дос
киськ
тожо
##тысь
##re
##юх
##юра
##сьт
валалля
пусэн
##итва
огъёз
вералом
ёросазы
##кумен
интымы
##лыклэн
аспал
толыкез
##огор
эшсэ
##усён
куремезъя
музъемын
маж
кылдымтэ
паймонэз
##каоссэс
улосэз
лыдӟоно
будэтыса
амало
пусйымонэз
данъяло
кыдато
музъемъёсты
Берлин
Зэмлыко
гуре
гурзэ
нылашен
Викторович
паймемын
дыртӥзы
ӝутскон
кезьыр
квартирае
ӟечкыласько
бигеръёслэн
Югыт
азьветлӥсез
Шишкин
курорт
талазы
1931
комбайнёр
Константинович
сылалтэм
эмъяськонние
ӝукез
дэбес
Сибы
цирке
поездэн
тыпак
Толэзьлы
чипы
библиотекаосын
изданиос
Больниц
Виноградов
Евдокия
Ӝужыт
Университетын
бирды
оптимизация
спонсор
##мейстер
лысьӧм
Журав
Голланд
Ль
Матр
ПАВ
СА
гип
ер
лар
ра
тир
чаль
шань
##тылыны
##чет
##ВОР
##анской
##тӥсен
##олова
##растр
##истъёслы
интыяно
басьтонъя
##ичный
учётын
потамы
лыдзэ
нылпизэс
быдэстыса
йылозы
пиналъёссэ
чаклалэ
вырыса
вылэмез
вӧсям
вайытэ
туэысен
йӧвалег
ӟучомем
хозяйствоосты
вазиськылӥз
ёзысьтыз
сакгес
Пургалан
утчаз
бичаз
фестивальёсы
гажасько
вожвылъяське
вӧзазы
поръёслэн
Ёрослэн
ӝожом
Эграын
большев
квартираез
серектӥз
лобаны
##иськеммы
емышъёсыз
писпуэз
жугиськ
кутскемлэсь
бенз
ветеранъёсты
творчествоен
материалэз
кӧтсэс
##енье
жингыртыса
Федерацияя
уськытӥз
Туризм
Вератэк
гимназилэн
кичӧлтонэн
гожъямъёссэ
Ожмос
плит
кияр
##ыстав
математика
вуылэме
запас
кызьпуос
пудозы
нимту
##ангард
сред
турнаны
этапез
антроп
сюжет
председателез
мӧзмисько
ӧлексыос
Долг
Шихова
холдинг
Россельхоз
ужатозям
Дӥськут
кучап
квалифика
приход
Есен
Ли
Роб
ало
вк
жин
юаса
##мемез
##ЕМ
##ЕД
##чер
##адаын
ужалэ
##тэмысь
##ителез
сюен
##иян
##илин
##илез
дырен
пырпо
пырыку
интыуж
##анып
мынь
адӟылымтэ
быдэсты
буям
синмыз
кунлэсь
учкылӥз
пыриськы
лыктон
люкылэмын
##анович
вузасько
йӧто
ужасьёсмы
витез
книгаысь
книгаоссэ
Улыны
кариськоды
шараяло
##ачёв
арескын
ёзэтэн
вожвылъяськозы
октыны
лыктэмъёслы
педиатр
этнолог
сэрттӥзы
иськемъем
корказэ
киужлы
пыкъяськыса
ивортэмзыя
Вылысь
Семьяямы
градуслэсь
бугыръяськыны
вандыса
Юртъер
вуымтэосты
пегӟы
майбыр
Нуналаз
Бабич
сылалъёс
Камбаркаын
##культурая
Абхаз
пенсионеръёслы
пеляз
докладъёс
задоресь
иммун
мудор
Быръёнъёс
Июнь
##булат
ньӧр
Эгралась
спринт
яркытэсь
Задор
НКЦ
Щепкин
Иворт
Лондон
минимум
симпозиум
Дю
КВ
Кыс
Крезь
Тэк
выш
гармон
емышо
жыт
пан
смотр
##тылэсь
##ялэн
##чинь
##осмотр
##скъёс
##кас
вуыку
пось
тыриськоз
юртсылэн
тодысал
##андэс
гожтӥськиз
эшезлы
адӟисьёс
курем
пиналэн
дорысьтыз
Валай
Ваньмаз
азинто
лыдӟозы
учыръёсъя
пумиськи
Кенешон
##берг
Алта
Алаб
югдурзы
Герӟ
Сюро
##ительёс
витьлы
ышизы
азинско
аптека
u044a
ӝожомы
лэсьтонэз
осконмы
мӧзмы
Ильдар
ушъяса
вормонэн
архиерей
тӧлъя
Иисусэз
кӧтсэ
техникалы
пертчоно
кутонэз
планъя
1939
1965
пунэмен
кулэяськисьёс
физика
тодосчилэн
компьютеръёс
бӧрысьгес
Инвалид
актёръёс
Тодмотэм
Кельше
Шутэтскыны
территор
синкылиос
тэтчиз
общежитиын
Польш
кофе
категориен
Крестьянинов
вторник
бышкал
биньгозы
симфонической
Арсент
удостоверен
Толстой
спорткомплекс
КОМОС
Алан
ВТО
Ира
Лав
итӥськизы
лиф
хр
ёл
##олэз
##жи
##совет
##ытӥ
##амас
##аковлэн
кылӥзы
##итова
##итетэз
огмылэсь
пырало
пой
карн
##кетын
монумент
полном
учкиськом
Ужкагаз
##прич
выжыя
##кинлэн
палэнско
анкет
Берлозэ
иворчиос
куштӥське
бичетъёс
яратылӥз
редакциез
кисьто
шонергес
кунгожез
Шудек
дасянын
пыжиськ
метрлэсь
гуртоослэсь
мыскыл
округе
##ытэныз
1977
жаляло
базаре
Егоровна
тыршеменыз
комбайнъёс
юбилейлы
кылзӥськыса
пересьёслэн
пыӵатонлы
Возьмаськ
чечыен
Воронцова
олимпиадаосы
Дышетӥсьёслэсь
архивъёсын
блогер
Кайшева
синкыли
нискыланы
пунктъёс
чалякгес
Москвалэн
кулэстоно
Красильниковлэн
косэмъя
Уфаысь
митро
военкомат
Черныш
Сюлэмы
зачётын
Нимыз
алэмын
Набережные
Латв
сабырлы
Баль
Кильм
Чиб
меме
ост
серм
уяны
Ӧр
##сысь
##лёв
##ытӥзы
##чак
##юг
##ot
##оновлэн
##инская
ужады
луиськод
##огда
##поч
палъёссэ
##ылӥды
##ьков
##окен
эшъёсты
мукетъёсыныз
дышетским
йылыны
кунэн
куншет
дорысьтызы
оскытыны
лыктылы
чеберъян
Ужын
культив
колод
вазё
огазеяськонъёсты
люкмес
люконтэм
вузаськом
асьсэзы
пусйытэк
эмезь
выжыосты
Кыче
данъяны
книгапоттон
Героез
##шурын
кужымме
кужыменызы
шурын
шумпотонлы
депутатъёсын
##полковник
ошемын
косыса
вунэтэм
посуда
Милит
бусыез
нюръяськиз
Отчыозь
муниципальной
люкетӥз
чуръёсты
шӧдӥськытэк
Австр
серекъяны
Шундыберган
ичиё
кудӥзлэн
гырыны
модос
автомоб
училищеысь
шонтӥз
сӧсы
Дария
гожъямъёсты
инвесторъёс
Калашниковлэсь
Ожмаськ
донор
Миквор
ужбергатонэз
дугдытэмын
Шуге
огъетын
арескам
улляса
песятае
Сунцов
Мускоысь
чӧлскыса
галстук
могатэк
Селта
иудей
Ренат
Зангари
рубри
укылтэм
Благ
Вур
Деб
Дуб
Нач
Ус
Улэм
Фефилов
Хал
вашкалазэ
вадес
года
льӧмпу
сура
сылӥсьёс
чтоб
шам
юоно
##ёрез
##ail
##щество
##ud
##аръёс
##уна
вальк
##ысазы
##ымес
потӥськом
быдтӥ
потан
##ейс
Нокыт
##нищ
гожтӥське
Кушко
ӵошкыт
тыршисьёсты
йырсиос
##вае
секытэсь
##аослэсь
##аоссэ
Марайко
киысьтыз
пӧран
сиёнзы
айш
витизы
андан
Берытск
машинаослы
куараосты
ортчытӥсько
ышемын
исторической
воргоронлэсь
улосвылкуспо
Нырысетӥяз
паськытаз
сётонэ
Авра
Президентлэсь
профессия
##ратура
ведӥн
лымыен
кылбурчиез
Заря
Пермьын
Байтэрек
таламын
шаян
пунэмъёс
коммунизм
парламентысь
олокызьы
1919
Тихонов
Эскерон
ултӥям
Пыдын
юристъёс
вотяк
вылӥегес
быгатысалмы
ёзэсъёс
Демид
полицилэн
##ассаж
Валэктэ
асфальтэн
кодек
Конкурслэн
эпидем
секундлы
чиган
чиновникъёс
презентация
катрадлыкез
##чыран
Шутов
Интернетэ
четверг
угроведениея
Руфима
Кудрявцев
Вӧл
ДОС
Етӥн
Жив
Курт
Лег
Рита
Уӵы
Фан
Юс
агит
вог
жон
заб
кг
шаш
Ӧд
Ӧтч
Ӧлексы
##киналэн
##лина
##гол
##ААФ
##оссе
##ениосты
##атом
##етиез
##овщик
##евск
##дӥн
ваньды
поиск
тыроз
гуртысьтыз
нуналазы
##пок
улонысьтыз
утыр
быгатӥсьёс
учконзы
##карёва
йыром
марке
##таен
возраст
анаймы
кельтӥ
Ужа
пӧрало
шунытэсь
айшет
часэн
Коня
зэмлыко
устогес
Васи
суреда
Улӥсьёс
кысӥз
шумпоттоз
пыртыса
##самбле
луомы
Милесьтым
##рокомплекс
Пиналъёсын
ансамбльлы
перевод
вазьыны
Калм
Генрих
электром
огазеяськонъёсысь
кенэз
кукей
нуллӥ
киоссэс
мынысал
Семьяын
Азамат
сайтын
куартолэзёзь
берпуметӥзэ
пертчемын
эстонъёс
Бырем
1959
борддоре
1925
инфрастр
чурытгес
тамакез
##ЛЭСЬ
разряд
дасялозы
азьланез
гондыръёс
хоккей
тренаж
монэным
Куреггурт
Сайлент
Министрлэн
тусбу
Пуны
кыллиз
боев
Комисси
комплексэз
Венгрие
отпуске
Пихтовка
праймериз
слесарь
КВН
ДОСААФ
Кастр
Памят
Храм
Чап
акыл
васько
мк
сектор
уӵ
##тылэн
##мод
##гас
##АЙ
##алина
##осэ
##овик
##отя
Сог
тӥяськ
улӥське
вулэсь
##тӥськемын
понӥ
гуртъёслэн
##ейкоз
##ылӥд
медучилище
Купан
мыняса
пиналлэсь
быгатэмезъя
пыриськылӥзы
огазеямын
вераськонэ
ӝутӥсько
сьӧлыко
сыӵеосыз
виыны
кошкиллям
лыдӟоз
Кунян
возьмазы
тунсыкъяськизы
сьӧрло
кылемъёсыз
пыдъёсы
кивалтӥсьёссылы
верасьёс
сюлэмын
суредаз
суредъёсыз
черклэн
бызьылы
вӧлмизы
Кыксы
утчай
ужезлэсь
огезлэсь
ышы
ыштыны
сержант
##кобр
##лово
дышетскисьёсын
партилэсь
быдэстонлы
порма
шукке
судын
сэрегын
больницаосын
бурдъяз
270
асьмелэнъёс
260
врачез
ваньбурзэс
гурезьысь
ялонъёс
1932
ёзэтаз
пишто
Картсэ
тылобурдоосты
Чайковскийлы
Машин
Возьыт
тулкымъёс
мӧйыослы
Вордӥськиз
удмуртлыкен
историезъя
Дышетӥсьлэн
Кубок
Фома
волятыны
завуч
Королёв
вылонзэс
быгыт
сезонэ
апрельысен
передачаез
Валяпай
статус
приёмной
Челябин
Сапож
кизьн
редакциямы
вертолёт
Ыбылӥськ
понедельник
протокол
Московской
Республики
благоустройство
Шептал
департам
ПАВЕЛ
Баз
Дзю
Еро
Коб
Кеп
Каф
Созэ
аст
власт
еж
рот
##доз
##ечи
##шал
##ub
##анъёсын
куала
##дмес
пулем
огеныз
тырмылы
пӧяса
басьтылӥз
тодылэ
пуктӥськон
пуктӥськись
палар
кутскиды
возьёс
мылкыддэс
выжоз
усьтонлы
тыршимы
Ингур
семьяямы
##моке
кельтон
дуннеяз
ужпумен
городлэсь
Араз
газэн
пумиськыса
##ольгыр
нуыса
вожез
ужасьтэм
пыӵатонъя
Кононов
министерствоослэн
##опол
суредаськон
##ингыли
дасяськизы
азьланьто
политикъёс
кузёяськыны
интыясько
заряд
Комсомол
Школаосын
тупатӥзы
судъя
Улонлэн
Камсьӧр
дасянэ
Черод
1981
фондэз
Евгеньевна
кандидатура
1936
пегӟыса
кылзэм
шаплыесь
пайдаёгес
электронной
жалям
жалясько
проектэн
Медведевлэн
Асьсэлэн
мынэмез
началь
сюлэмшугъяськонъёс
##олюб
Книг
дӥсяськыса
телефонъёс
телефонэз
хоккеистъёс
висказы
Огазеяськон
Хохрякова
варення
Президиумезлэн
июльысен
Кыдёке
Ӧнерчиос
Гагарин
Победа
Коновалов
Польшаысь
автомашина
фундам
##месте
балезиноос
Пчеловод
Дӥ
ИЖ
Ион
Хайм
Шок
зӥ
роно
сьӧл
хоть
челов
шля
ӧсэ
##зина
##оним
ноутбук
##азылэн
лулы
шуонэз
##иськонэз
нылызлы
тырытэк
карылӥзы
юртысьтызы
конешно
поттылы
отв
берегес
буль
туно
вераськод
ватӥськыса
эскери
нылпилэсь
вузась
пусйыса
вордски
##опед
##опроф
утёнэн
##ительской
##шурысь
бызьылӥз
бертоно
##емелы
министръёс
луонлыкъёсмы
командалэн
командалы
вордӥськизы
ӝытын
##акузы
докумен
тэле
##атлонъя
улэмын
огазеяськонъёслэсь
пенсиез
зоре
бамысь
ӝужан
кандидатъёсты
улӟыт
280
пумиськоназ
Эмъю
тубыса
дипломъёс
такс
улэпкын
апайлэн
вӧсяськыса
ветлэмзы
салат
Устоосыз
ӝуткаськ
Горбуновлэн
йыружъёсты
шобыртэм
арлыдыз
ӧтчамзы
штрафъёс
списоке
уллёен
Шумпотон
текстэз
##ацизэ
кадръёсъя
азьветлӥсьсы
Кышкытлыклэсь
огинты
подъездэз
арнянунал
Аркадьевич
дуэт
тарифъёсты
православной
Совхоз
шахматист
Овчин
Инвестициос
Шыпыт
Лопат
губияны
Уразгильды
правоосызъя
Вятка
Дев
Мыд
Пят
Сиз
Съезд
Улы
Урак
ри
ручка
устав
эх
ӟу
##тере
##ew
##ъездэ
##od
##ter
##аловлэн
норм
##анер
соц
##мык
##зэм
##омпания
улсы
улисьёс
улылӥз
инмын
##роын
дырпус
ортчылозы
юртсэс
юрттӥсьёсыз
пуктӥсь
улондэ
##палась
бул
чакланъёсъя
стрел
сизь
ужрадлэсь
сюлмын
сюлмазы
коньдонлэн
кельтӥллям
спортэ
кенешиз
кылдытӥмы
Арнян
вузъёсы
сюлмаськем
Ившина
турск
ожъёс
кырӟанъёслы
амалъёсынызы
толэзьскын
бызьылӥ
шумпотэмын
дасяськиз
предприятиез
кузёяськ
интыоссы
службаысь
гажанэ
дӥсьсэ
пенсиосъя
атаелы
Малпаськом
вашкалаос
Волковлы
мерттӥзы
веранъёсты
мукетъёсызлэн
u044f
районъёсын
лябесь
шуккет
судлэн
гожтэтсэ
лоба
фермаосын
возёсъёсын
##ография
Кыкетӥзэ
культурамес
кынмыса
войнаысь
выжыкылын
выжыкылэз
ӧнерчиослы
ӧнерчиослэн
синйылтыса
пересьмон
куатьтон
1974
пуктылӥз
пуктыло
выжыоссэс
шулдыртэ
сузяны
умоятонлы
керетон
жалем
банкро
ульчаосты
Вордӥськи
выйыса
шугъяськытэ
Кибья
Сочие
кружокъёсы
войско
ӟечлыксы
ӟечлыксэс
рейс
лаборатория
инвожоозь
комсомоллэн
выставка
Куарусён
философия
Верховной
ӟичы
Чакламъя
Чепца
Голуб
##витие
Кекоран
кредитэн
телепер
Вӧёгурт
u04e5
Азьланезлы
правнук
пильмаськылоз
Кастрен
06
Бав
Гав
Ков
Муж
Усьтэм
Фе
Февр
Что
гала
глоб
иш
пожо
состав
юы
##етӥз
##таз
##куд
##эй
##КАР
##By
##ослов
##орон
ужды
ужъёслэсь
ужасал
уллязы
нимы
адскы
##лог
ёросъёсты
калыксэ
дунзы
лыдӟым
нимен
нылпизэ
бусьтыр
сиёно
алимент
эскериськом
кенешчиос
кысканы
люкалоз
герб
шунтэ
сюлмаськемзэ
артистэз
пудоосты
##циослэн
берты
малпаськылы
вакытъёсты
вамыштоно
шумпотэм
куштӥзы
кузёмы
Карсов
##ылӥськиз
Иваново
атайёслэсь
##ъялод
кенж
чорыган
Нылпиослэсь
Семьялэн
хозяйствоосысь
пегӟем
толсурозь
статьяя
юалляськыса
ӵектонъёссэс
ӟырда
кунянъёсты
декабрёзь
каремзэс
ёзчиоссы
Паймод
поселениын
Журналистъёс
инструментъёс
печатлаз
##ниченко
зоопарке
песяйёс
Мӧзмыт
Тодматскон
дуннезэ
поэзия
коробка
выльдозы
урдсы
баскетбол
светоф
холодильник
менеджер
актриса
Тимерханова
эстӥськонэз
Кокорин
эваку
огкадесь
05
Sil
get
ВУ
Выстав
ОГ
Шад
Шек
Шиля
Яга
Яшин
все
вари
па
хал
шоссе
##итэ
##ным
##таос
##ug
##ТӤ
##ЫС
##онь
кудӥн
##ъяллям
##атае
##актор
валъёсын
кылдӥсь
пуэз
##едач
##икл
пумзэ
гожтозы
эшъяськись
пыриськисьёсты
вераськисьёс
йырзы
кӧлэ
##егр
ветлылӥз
люкиськизы
вайылӥзы
учыръёслэсь
##ысалды
вормисез
вуттӥм
##еративной
Глазысь
ӵошатскись
##илист
устоесь
вуэмъёслы
уйлы
пыртозы
клубысь
радиоп
Вуылӥм
##ыоссэ
чылкытлыкез
куронъёсызлы
сяськаез
мадё
алыны
мытӥзы
мычиз
больницаосы
тоннаозь
осконтэм
вирзэ
каронкыл
кезьытъёс
коркамы
гидъёсты
мугоры
быгатэменызы
сайтысьтыз
сентябрёзь
Вормонэз
1968
ожмаськыны
эшъёсызлэсь
кесясько
площадкаын
Таукар
1921
сюлмысьтым
Извест
Адямиослы
бергазы
пересьёслы
возьдаськон
бертэмез
лачмыт
ӝукен
олимпиадаын
гурезез
этнографияя
сыӵезэ
фракцилэн
эфире
экспертъёс
капиталэз
Сюлмаськон
Бордаз
Люкаськемъёсты
##ьеысь
Пунэм
Ляль
Чутырский
заведениос
катьтэм
Саранскын
губернатор
Хельсинк
ФОТО
Гальцин
Милитина
getElement
кудӥныз
media
Голов
Динам
Кард
Лин
МИ
НО
Саф
Энерг
йоскалык
следж
чуд
##рук
##так
##луб
##мись
##улэ
##ӟо
сопала
вуш
##ислам
нылъёслэсь
##исто
кара
##сиров
кулэзэ
дунъясь
прибор
адӟылэ
пиме
##еста
кунэ
чаклаське
кӧч
кӧлы
шумприч
люкаськись
вӧё
выжызэс
витисько
вазиськись
вазиськыло
артиллер
u0451
##иезъя
воргоронэн
шумпоттозы
ӝыныяз
куштэмын
бӧрды
Галич
интыяське
коллективъёсты
келяй
кисьтӥзы
кожа
шӧдӥськод
шӧдӥськоз
коорд
ӝожмыт
Курек
Таизлы
ческытгес
кышкатэ
ӝуждалаез
коркалы
подполковник
специалистъёслэн
Борисович
вормонтэм
комиссиын
Луонлык
выльдӥсько
кесяське
пыӵатӥзы
пилот
мырӟ
сётскиз
предметъя
Пайми
дӥсяськемын
Гарин
инъетсэ
грантъёс
ветлӥськомы
##АЛЫ
Золотарёва
кирпичлэсь
имп
Участ
лемлет
Кутуз
ивортоназ
Владыкина
букваосын
Вунонтэм
лулӟе
Жингрес
Радио
##тӥрлык
аспирантураын
баталь
Верещагин
Сюлэмшугъяськытӥсь
Кильмезь
Авраам
Гон
Дз
Ду
Коч
Нян
Чун
веп
дым
если
зӧ
каж
либ
масс
уин
чын
шымы
##олэ
##яки
##блюд
##udm
##te
##ины
куло
##есто
огедлы
тыронъёсты
##иназь
юрттысал
##онъёсысь
калыко
##ьяк
монтаж
пуким
палтӥз
Куарто
тодмантэм
быгатылӥз
ӝутозы
кошким
йылпумъяськизы
кенешим
Куное
вузазы
киынызы
возьматӥ
##прин
Матӥ
музъемзы
##ледующ
пудомы
урдэс
куштӥськиз
потытэк
котькӧня
Нади
бусыысь
праздникъёсты
бырйыса
коллективъёсын
музейлы
берытскыса
мертазы
кылдытэтъёсысь
няньлы
##ествен
сылыса
яратонэн
йыгмыт
шуккиськиз
кивалтэтэз
сайтъёс
экспедиция
1971
геройёсыз
асьтэдыз
технологиосын
Йӧн
Кировысь
ветлэмын
1934
1966
писательлэсь
золэсь
1926
ӵектонэз
диспет
инвалидъёслэн
ветлӥсьёсты
стадионэ
йылпумъямъёс
бервылыз
Кылбуръёс
предметэз
ултӥян
офици
ассоциация
Дэмл
педагогика
Булай
шайвылэ
деталь
Ильича
мусуль
Библиотек
занятиос
Евдокимов
эсэпсэ
Серафима
Киужъёсъя
открыткаос
кивоштӥсьёс
Администра
Бузилов
гулбеч
Великобр
полномо
чтобы
Dart
Вав
Жиль
Киос
Отӥ
Ся
был
бел
пад
ясли
##иано
##сель
##тур
##метӥ
##усэн
##бат
##ДН
##скин
##отер
кылъёссы
##росо
таослэн
тапыр
юрттэмзы
сётытэк
Удмуртиен
Ижлы
##почин
паласен
прич
одӥген
пӧлаз
бырылы
кунмес
Соосъя
воштӥсьёс
кӧбер
##утдинов
оскытэк
семьяезлы
коньдонлэсь
анайлэсь
чеберъяны
котырам
пусйиське
витёно
пыдсы
ӵошатсконлы
ужанэз
пудолэн
ортчытъяно
Михеева
ёзъёсаз
кариськытэк
вакытазы
вуны
параш
Можгае
узырмыны
заводлы
сценар
черкогуртлэн
султон
управленияз
тэбин
Шуизы
пӧрмытэм
кисьтон
кылъёсме
шонерак
Произ
курадӟон
Тросэзлы
ӵошатсконъёслы
##ъесы
Советлэн
огкылъёс
##СЬКОН
юбо
ыстэ
Паймыса
ушъяз
ушъяськымон
кутсконазы
культуралэн
мугъёсыз
форм
Тодматӥз
Йырам
асьтэды
Городлэн
Италиын
печатласькизы
1969
пишмы
Антонов
шулдыртӥз
пусъеме
политикаын
кылзӥськы
Возьм
Мики
романт
udmfo
##центрысь
Поздеева
Кутскиз
Шайх
Сибире
йыртэмасьёсты
Заводын
тодматоз
лулчеберетэзлы
Попов
аскивалтонъя
Сӥземын
##III
Урокъёс
Спортсменъёс
милиционеръёс
Перепечкин
Георгиевна
лирической
почтальон
Ворончихина
пересез
тушмонъёс
микрофон
Менделе
##иназькыль
Великобрит
udmfoto
КАР
КУН
Лям
Лог
Пег
Сон
Фот
Флю
десант
мок
пош
рэп
сисько
юмоке
##пог
##рит
##лот
##лев
##ev
##уально
##шыр
##бед
##ЕКС
##анка
##ород
куо
луид
кылли
сюез
карди
дышетонын
пуктӥськом
лэсьтӥськы
нуналъёсын
радъяськем
беризь
быгатӥллям
учкисез
сюреслэсь
вераськомы
сиен
ветлонъя
сӥзё
шудоз
лыдӟы
яратӥськод
вузаське
сиёнъёсын
Гуртмы
пиоссэ
вазиським
толло
атайзэс
Азьветл
программаен
шурысь
малпаськисько
егитъёсмы
шараяськизы
театрен
азинскем
вунэтӥськы
Андреева
берлоез
кусыпъёсмы
бактер
пӧсьтолэзёзь
сайказ
##ылӥськоды
ӝожтӥське
визьмогес
килограммлы
ӝутско
алк
осконзэс
арлыдоез
малпанъёстэс
культуразы
пӧйшурась
Кивалтон
Артэ
экспонат
Троиц
кафедр
печатласькиз
1963
пегӟе
Пудоез
толшорысен
банкъёс
кудӟыса
буйгатскыны
Асьсэды
Ожысь
котыртӥз
канж
программазэ
интерне
офис
рольёс
Архип
Тӧролэн
экскурсие
учкисьлы
Наукаосъя
модельер
Клубын
III
Редактор
детектив
сеял
проректор
лицейын
кибы
лымылэсь
дугдылонни
поселениослэн
тусбуйзэ
ыльнянь
русской
Бельт
Сэре
Искусствоосъя
связья
ужатозяз
Свобода
лӧс
Севасто
Silent
Woo
Жуж
Им
Оз
Оли
Поз
Чуш
мӧля
найм
##поль
##рол
##наны
##трос
##ъетэ
##im
кутӥськомы
солист
##дме
##ста
тӥяло
вутэк
сюдэм
огласянь
##илет
##ивил
Таче
бызьы
пуктоз
##ейка
нимкыл
##рамма
одӥгезлы
##аломы
учкисьёслэн
пыриськылэ
стенд
##икае
##ъямзы
секцие
огазеяськыса
возиськомы
киное
кошкылӥзы
##ковлэн
кенешазы
кылбурет
##ологъёслэн
Берёз
Кредит
кыстӥськем
валанэн
валанме
шумпотты
депутатъёслэсь
студие
парке
тылож
тылсиос
ортчытӥськом
финъёс
предприятилы
театрлэсь
куштоно
Пургаын
ёзэтэныз
вунэтӥз
мугораз
кварталэ
адӟытонъёсы
мерттоно
печать
курадӟись
шудоесь
чорыгъёс
##ьянов
Кышка
туспуктэмъёссэс
ветлӥллям
азбаръёсты
шӧдылы
тодосчиосын
Чайников
бергась
1938
пӧзьто
командаяз
ёзэтъёсызъя
дурбасьтыны
Котькинлэсь
странаын
метрозь
шыръян
Умойгес
капчиятонъёс
тулын
Конкурсын
тэтчаны
Михайловалэн
радъямы
плот
эрк
дэлет
портал
кабинетаз
аппаратура
##ремя
банкын
кутсамын
сюлэмызъя
туристъёслы
кивалтисьёс
Тронин
гуждор
Тодосчиослэн
духовной
Урамын
##ъялляй
Синмаськымон
автозаводын
дизайнъя
##ъёзо
марафонъёс
Ельцин
Евровиден
йырсизэ
Огазеяськонлэн
оштолэзьысен
кильтыр
черламын
Пытсэт
удысэтлэн
рецепт
Амалтэк
американ
Парфён
Хаймина
Эмъюм
##ТӤСЕЗ
Галичан
Lad
Ато
Генер
Ели
НА
Тем
Туд
Танып
дистан
нялтас
рес
ческ
ӟырт
##ызэ
##ӵо
##ir
ареныз
валлин
##асьтэм
##икалэсь
поездэ
##оног
пӧсям
калыкмес
тодонлык
ӧвӧлысь
поттылӥзы
кивалтӥсько
кивалтоно
##усов
кырӟалозы
пыриськисько
секциын
сыӵегес
улосъёслэн
кыскозы
дыръяды
пумиськылӥ
Кенешлы
сюлмаськемез
пиосы
вуэмъёсты
кизёд
кузпалъёслы
##аллян
бичанъя
сериал
синмасько
коллективлы
пытсазы
калтон
берытски
кожиз
быръёнъёслы
мертто
кыдоесь
Школаямы
улонэзлы
быземын
лобало
предприятиослэсь
##ухова
академической
Венгер
Уйвӧт
спектакльёсын
##иться
Чайков
выльдӥськиз
мартозь
Бываль
шедемъёслы
кизилиосты
Егорова
пыласьк
пыриськемъёслы
Касим
Палган
Узбек
Векчи
ёрмись
Кубокез
Вузкар
Йылпумъяз
Золотая
конгрессы
калгыса
Кват
##ТИСЕЗ
зурк
гонор
пӧрмысал
линия
дугдытыны
пужъятэм
мальды
сигаретъёс
Столичный
Великий
Сахар
чуртнаськ
Блинов
Удалтӥз
Пахомова
воскресенье
Слесарева
Чернышова
Известия
id
pm
Бех
Гильм
Еж
Оф
Остр
Рыб
Румын
Тай
Чыр
Яс
Ял
лот
тыос
тём
утӥллям
фоно
циф
##оо
##ьын
##шой
##гис
##ӟек
##щение
##ka
##ора
кутӥмы
##тызы
##овин
уждэс
ужалод
шулан
вузэз
сюдӥз
##икъёсты
адскиз
ортчылӥз
удысазы
комок
огазеязы
##агност
йырдэ
клевер
вазьы
кораны
адямиоссы
Инженер
шаермылы
семьямы
##спек
Валантэм
шоръёзо
ужпуммы
вылэмзы
люкисько
Кенешонэ
##ольный
##емезлэсь
кылбурчиослэн
газетчиос
кылемъёслы
пыдвыл
ужанлы
луэмме
Сютэм
Верос
кариськимы
кузёзэ
чидаськы
витьыса
угоръёс
кылзонъёс
вӧзамы
анаезлэсь
инкуб
артистлы
авторъёслэн
пыжон
песянайёслэн
юнматозы
бамъёсын
пиосмуртэз
корказэс
сётэмзы
Уйшор
Президентэзлы
тубиз
Азербайдж
Гожъяськон
искусствоез
вордонэз
гожъямъёсыз
сӧсырмиз
погр
Групп
бумаг
нокытысь
Пушкинской
Игр
резолю
маскара
Кышноез
мемор
уськытэм
исполкомезлэн
выпускник
правлениезлэн
библиотекаос
вотэсэ
Лобанов
тренировкаос
рекламировать
заповедникын
Баженов
Георгиевич
Таллинн
странаысьтымы
кунокуа
народов
УЛӤСЬ
парламентэ
Хамитов
конькиен
Кубиста
Авиатор
кавал
песьтэр
##ащий
сульдэр
Юськи
ЁЗ
АК
Бо
Бык
Волог
ИВОР
Паш
Руб
Югор
атом
дук
лош
лыж
лейкоз
массаж
съём
##ачи
##сина
##сяз
##ӵектос
##осаз
##ентэныз
куай
##скадь
##овикъёс
##олок
кылоно
##тӥськи
##евалы
нылъёссы
потымтэ
##истъёсын
тыраз
тыронъя
тырмыса
пӧям
интыяло
юрттӥськиз
басьтӥськем
потиз
##няя
быдэстымтэ
полаз
выжи
вошъясько
сюресъёсъя
класт
нылпиосызлы
##таез
вози
чеберъям
сурано
суретэз
тодмоез
Кенешез
пусйиськом
витиськом
##оскес
кыдатонъя
ужасьлэн
##овичлы
турна
журналэз
берыктӥське
##аться
малпаськись
уйбыт
центръёсы
буро
пуштон
Малмыж
тэшк
люкетъёсыз
Програм
кулэсмоз
пиосмуртлэн
киосы
юонлэсь
киноосты
ыбылыны
тӧроеныз
дипломзэ
пегӟо
пегӟиз
ёзэтын
объектэз
видеор
пеймытск
станцие
керпо
хорын
визьнодан
чабизы
липетсэ
стадионъёс
зыно
Емельянов
фронтлэн
##ущие
Роспотребнадзорысь
##ященной
ватскыса
дышетсконниосысь
заказъёс
Князевен
Гавриловлэн
кышкато
Суворов
краевед
черламъёс
Арганчи
бергатыны
котыртэмын
олокытысь
Баженова
Кибашлыослэн
аранж
Суббот
образованиен
Козлов
реформа
Артемий
##ейервер
##дышем
троллейбус
гыбед
Лэчыт
июнёзь
Алтау
инфраструктура
sh
Дим
Зуев
Псков
ватон
дев
##пова
##спорт
##йык
##МА
##tion
##ерья
##унд
ужалом
##стаг
аралод
валэс
улысьтыз
сюдӥзы
##мах
##яськомы
##исьлэн
##ечка
пуктонъя
##аполь
кырпар
удыслэсь
быремъёс
##ӥськиз
муртъёсын
семьяосы
азинтӥз
суретэн
пумитамы
##еваез
вайёсты
##обор
пӧраськон
нырысьёсыз
Гуртысьтымы
музъемысь
##опт
палэнскы
атайлэсь
Михеев
вамат
креп
чылкытэсь
Тодӥськод
картаез
утчаськон
Балакин
проектъёсын
бӧрдо
службая
воштӥсезлэсь
азинскемзэ
партиен
тӥледды
музейёсын
возьмай
пӧрмытӥз
премиеныз
верантэм
шонерзэ
Дунъясьёс
школазэ
школазэс
сэрегъёс
##ъеслэн
юнматонъя
вуро
ульчаетӥ
##тыкумы
модая
куролэсь
##азезэ
ветлыкум
этажаз
вуылон
черодъёс
гудырикошконозь
Вахром
##ехникумын
кайта
азьветлӥсьёсты
Педучилище
Шундыкарын
циркын
пужыосын
Паймытӥз
Федор
адскымон
пайдазэ
зӧкта
Экономикаын
мемие
Космонавт
Тугбулат
чукин
пӧсяно
Мӧзмон
комиссиоссы
сельсов
Тарасов
Федотов
вискытӥ
Ильинична
прозаик
Габд
дежурство
чепыл
АЛЕКС
Калининград
тулысэз
дотово
бадьпу
экспедициосы
азербайджан
Сепычкар
Севера
Ӧлексыос
Купанча
Бельтюков
ВАЗ
Ядр
дел
киосын
моск
синазькыль
##син
##арлэн
##ыдлы
валлян
тӥськ
муэз
дышымтэ
дырды
карг
гуртсы
юрттӥськом
азьлапал
кутском
кыӵ
мукетъёслы
кыкен
бырозы
учкиськоды
йыръёс
сӥзе
Кунгур
яратӥзы
вузъёслы
103
матери
Нылыз
122
Крит
ужъёсме
117
кышномуртэн
усемын
шулдыръясько
писат
шутэтскизы
ортчытӥ
куаразы
проектъёссэс
потытозяз
сценаез
студентка
лэнд
дӥсьсэс
радиоез
дауръёсысь
таизлэн
ӧръяськиз
больницаос
мӧзме
фермаен
1949
турттӥськом
зарниен
Кышк
эрике
вандэ
Йӧвыл
вӧсясько
Быръем
ёзэтысь
вытъя
Христослы
кесяськыса
##обрет
базарын
погранич
Финляндия
политикае
участокъёс
аналтэмын
Тырмоз
орденъёсын
Атаймы
Возьмат
книгалы
Газетлэн
ньылетӥзэ
Арнялы
приют
портрет
гадьпусэн
пасьта
Пельга
тэльмыр
ӟечлыкен
вутске
Москвина
йырви
Музейын
пӧсятӥз
сӧзнэтэз
Испыт
саам
селек
меня
висъяськылӥз
мертчан
Ягул
график
##СКИСЬ
уробо
областьысь
теннис
Водитель
келяллязы
Дэрем
шугадӟонэ
Звезда
обществозн
аттестат
##ДЕО
комбинат
Сентябрь
финише
Снеж
инструментэн
дневник
Лялинлэн
чеснок
фигур
легенда
департамент
Вахромеев
АР
Вика
СХ
Сив
Ты
Тӧр
Чиль
Шуш
зыл
кня
лиц
пизэс
утыны
ӞЕЧ
ӟусъёс
##тылэм
##уке
##60
##фира
##op
##ПК
##ылизы
##осъёсты
кутӥллям
##изировать
вуысь
огшап
##ъяськиськом
##иле
##илингв
##евез
муми
ваньм
ёросысьтызы
карьер
пӧськ
басьтымтэ
сётымтэ
сётӥськомы
##эсул
поттӥм
Ижави
нуналъёссэ
кутскиськом
адӟемзы
адӟиськизы
куриськом
ӵошат
йылозяз
буша
будто
кунэз
усьтӥмы
воштэм
вах
эктӥз
семьялэсь
##анилэсь
шедьтӥсько
бордад
ужпумъёсыз
вылэмзэс
киме
визьмыз
155
малпанмы
министерстволэсь
черкъёс
вӧлмыны
бертоз
пуштэм
республикая
проектъёслы
спортсменка
изён
Карын
мини
люкетлы
Правительствоен
Правительстволы
Ёросысьтымы
пельтэм
эшъёсынызы
Курыт
Медло
телег
лагер
тракторез
сылоно
Браз
гожтэме
ӝужа
фондэзлэсь
ушъяло
Парзи
тылпуос
спектакльысь
Эмъян
эриктэм
ӧссэ
экзаменъёсты
синйылтэм
кубыз
экспоз
Троф
солдатъёслэн
1935
нуллы
Кирос
ошмесэз
Мылкыдоесь
Сьӧраз
тыметын
Союзын
эмъясьёслы
кечат
контакт
реценз
сынан
##мугор
Тӧроезлы
печатлан
ужъюртлы
предметъёсты
Берпуметӥез
нэнэе
Азьланьын
##ЛЬК
Бабайлэн
егитэсь
эмеспиезлэсь
ӵектослэн
Кыдёкысь
Мироновъёслэн
ассоциацизы
экземпля
Мумиз
Лёня
волонтёръёс
Бутол
Психолог
предложен
дирижёр
преподавательёс
мастере
пасьталаез
Дягелевлы
Япаров
Шепталин
Ядрышников
Лиля
Мерт
Пресс
Тэр
Футб
Шимес
оцен
персон
сон
чектос
ымысь
##рек
##нар
##трес
##тылӥм
##хан
##уева
##грант
##sk
##ыня
##дмылэн
кылись
пумазы
вуысал
сюло
огдэс
##ъяськонъя
##гаез
ваньмес
##мерт
котом
пумитэ
##ечной
потылы
поттылӥз
лэсьтылӥзы
Ижез
##коль
улонэныз
гожъяно
##оком
адӟом
адӟим
адӟиськоз
кунлы
##ваысь
горо
Александрово
эктэм
##спект
##тае
шедьтоды
шорад
кудиз
лыдӟиське
Никонор
огазеяськонзэс
пумиськем
106
##ялля
пудоос
атайлы
валанзы
уйёс
Дышем
законо
центрлы
дасяськиськом
политической
чиданэз
##ихин
ышто
коллективын
лыдпусъёсызъя
люкетъёс
ӝожтӥськыны
огазеяськонъёсы
документъёссэ
бамзэ
бурдъёс
предприятиосысь
подряд
округъёсъя
тыметъёс
кышкано
жингыртӥзы
синйылтыны
укное
соизлы
пытсаськиз
Ӟучъёс
странамылэн
дугдылы
писательёслэсь
Герберез
330
учкисьёслэсь
дунтэмен
гожтэтэн
лӧпк
сюлмаськонъёсыз
Шонергес
эмъяськонни
телефонъёсъя
пуртэс
ёрме
пужыё
##ОРО
фотоос
животъёс
витетӥез
Софрон
тэшкыли
##сийской
Журналистъёсын
Уфа
паськытатэм
Лукерья
шальк
шалтыр
ВИДЕО
вожвылъяськонъёсы
Назарова
марафонъёслэн
Болгар
Ефремоваен
командировкае
##ДИО
субботае
бомб
иудейёс
Самарской
фарис
управляющей
Мурманской
Пикулева
Диктант
Дагестан
айизлэсь
##просвет
Соглаш
Вӧёгуртлэсь
Йӧвылэсул
Испытай
Трофимов
АУ
Бир
Вк
Вись
Воспит
Гад
Драм
Жал
Мылкыдм
Следующ
Тв
Худ
Чи
бӧдья
васькы
паг
транс
траг
уез
цивил
юалэ
Ӝытэз
##летъёс
##ька
##шков
##ӟытӥсь
##der
##МО
##алистической
##зыв
кутӥськыны
##сказ
соз
кешыр
улись
вуос
вуид
таослы
Удмуртав
##илли
нылме
пыра
пырим
поталля
##ейской
дышетскемзы
быдэсмозы
синъёсме
егитъёсыз
мылкыдтэк
полилингв
вераськиськод
сьӧрос
##абыль
йылпумъяло
чебермам
кыскоз
кыскаса
азинтӥське
лыдӟисез
выроз
вузаськись
верамзы
выжызы
сюлмаськонзы
##пион
кырӟанэ
палэнске
машинист
Нылга
берыктоз
тупатъяса
116
182
Пург
депутатлэн
картаос
утчаськом
витьёслы
бичетэ
вунэтӥзы
ужазин
##улла
дышетӥськом
Волковен
гектарлэсь
нылъёсмы
анаен
муре
Адямилэсь
дэриос
Куриськон
вераськонмы
чорыгасьёс
бызизы
мастеръёс
ӵужмурт
сӥльлы
шуккыса
азбарез
синйылтытэк
инкуазьлэн
пичиослы
солдатъёслы
ньылон
ожмаськиз
коммунист
мусоесь
статьяез
Секытъёслы
1924
режиссёръёс
режиссёрлэн
Сюмсиысь
инженереныз
кылзӥське
пулъёс
дӥсяськыны
радъясьёслы
сантиметрлы
гожъяськонъя
Ӟечбуресь
критика
адскизы
синмынызы
Китайын
Пусъёмы
сирот
Эксэйлык
лавка
Лулчеберетья
ӵектоссэ
дизайнеръёс
юзмыт
Тарасова
Кыдёкын
куаретӥз
Эстаф
Муми
Премьер
Швейцариысь
Дыдык
Евсеева
выступлен
Бобров
Полициын
дыкужымъя
туберкулё
многопроф
кемаласез
Дёминской
Бесерман
плюс
викыш
сермет
Тудву
Югорской
пеймытскемзэ
Тугбулатовоысь
полилингвальной
многопрофильной
ГАЗ
Зелен
Эв
доб
сар
шаркан
эгес
Ӵок
##дь
##ега
##слэсь
##манъёс
##уса
##гул
##бей
##ЕК
##px
##30
##осов
##ениосын
##ороч
##езъёс
кура
уженызы
##ыдущие
валамы
кылиллям
кылёно
##итр
вылады
##иосысь
уломы
тырымтэ
токар
##оговор
лэсьтылӥз
выльёссэ
малпась
нимзэс
##еляй
Кусып
##ебной
возьыса
мукетъёслэсь
сюрсысен
комиос
синт
пӧртэмлыкез
мискинь
оскиськ
##ыльды
огазеяськемез
шаерлэсь
##таст
шедьтылӥз
анайёсты
лыдӟисьёсты
сурало
вӧсез
##ановка
пумиськоно
101
кемдӥз
югдурлы
шугъяське
биологияя
Азьмын
вуэме
суредан
кужымъёс
кужыммес
ужъёсмы
118
Пурысь
картэныз
Таӵеос
предприятиысь
куарет
##ациен
историе
177
вунэтэмын
специалистэз
дӥсьтыса
##ылӥськы
Нырысетӥосыз
Мукетаз
гектаре
атайёсынызы
кисьтэмын
поттонэн
кылдытэтъёслы
ӧнеръя
больнич
Шудтэм
вераськонамы
ӧрзэ
юнматонлы
вирен
документальной
яратонлы
фондын
Дышетсконзэ
волость
Эмъяськон
азбаръёс
йӧнатон
пальто
вордонын
литературно
планэз
коньдэтэз
этажын
лэсьтомы
тупасьтэм
1928
Будӥсь
Адямиослэн
ворттылэ
Музъемез
Котырак
Котькудӥзлы
Сюлмысь
орденлэн
Возьд
октябрёзь
Крезьгуро
Покчиос
Садов
пелё
математикаез
вуылэмез
лыдӟисьлы
Ваче
Глухов
Манси
Предыдущие
лыдӟиськонни
экспертиз
Филипповна
маршрутъёс
Домок
производствоез
Норья
Актуально
Эстрад
джаз
Качкашурысь
Морозов
##пыдэс
телерадиокомпаниысь
таланто
Куашкан
##класс
Туганаев
фотоаппарат
Гусев
Фермер
Решетникова
Ёлкин
видеокамераос
Следующие
Дина
Жиг
Ип
Каль
МУ
Паллян
Рап
Те
Фир
аук
ге
миськоно
нед
нясь
руч
эскиз
ӟызы
##асто
##саз
##ноз
##корд
##лёз
##ab
##ak
##фу
##iv
##ist
##ерина
##ини
##инец
##ыкуд
лудэ
луыку
##отека
шуды
валатон
##иськонъя
##тонэтӥ
вераллям
##дӥллям
дырлэсь
поход
кариськомы
гуртсэс
##имо
палазы
радлыкъя
радъялля
ӵошатон
комикс
пиелы
даслэсь
будущ
воштыса
##аниц
шедьтом
Валлян
кошкемъёс
##каоссэ
##дӥськод
кенешезлэн
шудзэ
вузано
Кенешонын
кеме
ӟучсэ
Мая
Выльдэм
луэмезлы
машиналэн
Тодэм
луонлыкъёссэ
##иноын
шутэтскозы
интыосазы
аръёсысен
номырлэсь
улӥсьлы
ӝытаз
вунэтӥське
##ический
вуонояз
колхозник
тулысысен
Семен
дэмӟ
журналистлэн
трот
улэмзэ
опека
районлэн
печення
езлэн
Камали
210
Уром
лэсьтонэн
пенсилэн
сэртто
яратонзэ
библиотекаен
тӧрооссы
Байметов
вандо
редакторлэн
ветлыкуз
##алиме
мултэ
паймымонэз
коммуника
Коньдонэз
нюръяськонын
ӝутонэ
бергатэ
секретар
Нылкышноослэн
толалтэзэ
Клаб
чаклатэк
дача
пусъёнлы
камера
бертэме
Юргис
Мирош
Кузьмина
узырмытон
методикая
басьтоды
лушкам
гожъясьёслэн
одигез
учреждениосы
рейд
футболъя
машиностро
улмопу
частьын
ӵушкон
визьманы
Берыктӥз
Пугачёвоын
профессионалъёс
музыкант
ламп
интеллигенция
Спасательёс
ДЫШЕТСКИСЬ
Туктарева
публицист
Мукши
фортепиано
гинеколог
Лушкаськ
Рашит
Ӟырдыт
Роберт
Пчеловодова
инкубатор
Домокош
u201
Асп
ВА
Жад
Кӧл
Кись
Ломон
Моя
Пеп
Уть
Эсьма
Юбер
двигат
нӧд
пак
сто
тырт
чум
##эль
##ханов
##юч
##ost
##ПИ
##ТӤСЬ
##18
##Id
кутэмез
##сэк
тӥяны
уллям
##ъяськылӥзы
Таосты
пыраса
пыримы
юрттӥськизы
басья
##лыклы
ассамбле
проп
##ельёс
одӥгезлэн
школаяз
учкоз
учким
Кылзы
ватытэк
##ъямысь
кылдылӥз
кудпала
ужпумъёссэс
пумитъяськон
люко
люкамы
104
кыткетын
музъеммы
пыӵазы
ортчытъязы
нылкышноосын
Васса
ӵектэмезъя
уксёзы
луонлыкмы
номераз
шулдыръяськизы
шулдыръяськонэз
утчалозы
компарт
пуштӥз
кузёлэн
##алляны
Прото
азинскись
интыяськоз
интыяськиллям
литератураысь
кышноезлы
ватсан
##ибуллин
Шуиз
почти
кыдогес
пельёс
ӝожтӥськы
Медаль
КамАЗ
электрос
Финно
Учыр
баме
кудӥзлы
кортэз
спектакльёсты
малпамзыя
бугыръяськон
бугыръяськыса
вандылыса
ворсан
ворсам
ымнырын
ымныраз
возёнлы
бубылиос
скваж
Сьӧр
Коньдонэн
Брангуртын
ӝутка
Милемды
ужбергатӥсьёслэн
юртъерез
эмъяськонниос
Лыдӟиськон
программист
Крезьгуръя
Январь
памятникез
колледжысь
фотое
бугыртэ
Потороч
##промхоз
комнатаын
койка
Осет
передачаосты
формаен
ныпъетэз
Стрелкова
шальт
куштӥськоно
заповедник
Государство
сочинение
лицензия
минутысен
священник
простить
Пайдаез
Кельшиз
Пыӵал
воштӥсеныз
пӧйшурасьёс
белок
XIX
##садык
##ById
getElementById
Динамо
Дзерж
АУДИО
Мирошниченко
Бума
Бизнес
Диз
Зур
Льӧмпу
Пык
Парк
Повар
Чугун
Эб
бок
йыртӥ
нефт
сылӥ
фой
чаш
швед
юдэм
##елэз
##лат
##лар
##ыв
##монозь
##йыр
##ЕШ
##ЦИ
##ВИ
##ЗИ
##15
##sh
##лые
##арак
##ытозы
##асе
тӥяз
иназ
позы
интыысьтызы
юрттом
##идер
поттӥсько
лэсьтӥськыны
лыдъяно
лыдпусэн
приб
гожтӥськем
эшъяськиз
дышетсконын
висисьёслэн
чакласьёс
чаклалоз
пыриськод
пыриськыло
вошъяське
вераськоз
клет
корм
##ошкыт
лыктоно
Ваньзылы
ветлӥськод
108
Гуртэз
верамзэс
кылбуръёсы
##оскоп
визьмын
палэнтӥзы
урмем
кужымезлы
лулзэ
лулмугор
ӵектэмъя
вакытсэ
Быдзым
вамышен
вамышъяло
кылдытонэ
историзэс
дугдыны
воштӥсезлы
135
урамъёстӥ
нылашлэсь
праздникын
ватсаськиз
атаен
Семон
возьман
турынъёсты
быгатытэк
кутылыны
килограммез
ӟечкыланъёс
ӵужек
сӥльын
округлэн
быгатэмзыя
Пумиськонъёс
Вуоноез
таба
жингыртӥ
керттыны
курсъёсын
Путинлэсь
Элын
пуктонэз
Пусйытэк
Антонина
парламентын
штани
Группа
Баба
люкась
капчиятыны
##ТОР
Загуля
Тренер
мынэмзы
репети
котыртӥзы
Пушкинлэн
сюлмаськонъёссэс
Утись
плат
ыбылӥськыны
граммлы
Вордӥськемын
выжыосызлы
уроке
концесси
фронтысь
конструк
Глеб
бодыен
Кисса
Вӧзам
Остэ
##ЁСЛЫ
Лэсьтӥськисьёс
Митрейлэн
Лякыт
интеллигент
бурдоос
ӧпкель
скульптураос
Мӧйыос
Вазенгес
ВОЗ
яркытэз
##предел
Норвегиысь
Тушмон
экстрем
государственной
##eft
Огырчи
Смоленск
Ираида
Апай
Ваг
Зуб
Рек
Сум
ЦК
Эй
ЭЛЬК
катэ
ури
##нур
##тимир
##СО
##ёсысь
##ртӥ
##овской
араб
##отранспорт
шуп
##одил
##ямес
огпал
##рог
##иямы
понон
соостэк
##ённой
басьтӥды
поттӥллям
потаськом
##портэм
Куалек
##ешь
кырмемын
тодмало
кырӟамез
вераськемзэ
сиизы
ӝутӥсь
оскиське
маёзь
шӧмаськ
кужмыз
##эрес
кылдытӥллям
пумитъяськы
йӧскадь
шунытэн
нуэмын
ужасьёссы
кылбуран
##неръёс
журналэ
ӧтиськом
валанъёссэ
кематэк
тупато
тодматскимы
Кудзэ
шараясько
##лемент
студиын
Егитъёслэсь
акцие
историлы
##ёнок
Карав
u043f
Дэриын
техниказы
почин
премиезлэн
песянайёслы
кулыны
кулаке
Брян
мастерско
сӥльлэсь
бензин
кынман
лагерьлэн
##активной
диаб
тодэмъя
синйылто
Сюресъёсты
пуштросъем
1964
пунэмъёсты
кулэяськись
Васильевичлэн
1922
куректэ
эмъюмъёсты
тыметысь
юаллясько
ӵектонъёсты
усточиосты
тэтчыса
веросэз
мынэме
360
таиныз
почтае
котьмаин
Мунч
бичетсэ
индек
юрӟым
олимпиада
Визьнод
дӥсяло
лябӟе
произведениоссэс
Архив
деканэз
лушкаськон
тороез
пурысьтам
Восток
чыртыяз
Наука
башкырт
диссертацизэ
Давыд
юрттӥськет
Форуме
военкоматэ
Пригород
ӝокыт
НИКОЛА
##ook
Иерусалиме
Омга
Пониноысь
энциклопедия
кыктоос
мифолог
Шукк
самодеятельной
Сигаево
тетрад
Жуйков
традици
диспетчер
Кватчи
ЭЛЬКУН
АФ
Ванд
Гайн
Лол
Пинь
РО
Резиден
Той
Чиг
дыльды
пезь
сор
сара
уваос
фит
фейервер
шерт
ӟардон
##ep
##мол
##гота
##циз
##СТ
##cf
##ӝу
##ализация
##овое
луч
лулэз
луытозь
шудӥськом
##акен
##омизы
##тӥськонъёс
пока
потысал
сюремын
сётӥм
потай
потреб
палъёсыз
лыдъяськы
прис
гожтоз
Кучыран
##оконт
курка
сямъёссэ
ӟечыр
учкемез
Кылдыс
##умб
шедьылэм
вием
##ыртӥзы
йӧтоз
##част
культураын
данъям
книгаеныз
пыӵатыса
ожлы
Туэысен
ортчытом
Берез
Кинлэсь
кысы
кысонъя
шараяськ
утчам
тазалыкезлы
лэзись
##ӧкс
чидам
фестивальёсын
Евросо
ошыса
косм
Карлы
пияшлэсь
вожвылъясько
вожвылъяськонэз
##иби
редакциос
Белар
эшъёсыд
дэремзэ
быгатонлыкъёсыз
кезьытэз
гожтэтъёсын
вуремын
сылалэн
шутэтсконзэс
пужей
кутсконысеныз
специалистлы
Наум
йыгаське
Семьяез
тыметэ
лэзьязы
шуркынмонозь
СПИД
пичизэ
геройлэн
бергаса
1933
Орлова
гимназие
Григорьева
Христолюб
карымонэсь
кудъёсызлэн
милициысь
Минут
шудэмзы
националь
сьӧлыктэм
азьветлӥсьёсыз
осемен
животэз
буёлъёсты
Гуртоослы
ыбылӥськонын
Узей
питранъёс
380
портф
##надзорлэн
бертӥмы
физкультураен
регион
фронтын
Перевощикова
папае
##ытозязы
Новгородын
машиназэ
лавкае
гужеме
ворттылонъя
инвожоысен
Конференциын
Ляли
кышкаськы
Прохор
Менсадык
препар
блокнот
пумиськылыкуз
славян
Механикая
Качакысь
йылпумъяськытозь
школьникъёс
Промышленностья
абдрам
кырсёмы
Транспортъя
Ульяновск
волонтёр
мисьтаськон
Синпел
усадьба
репрессиос
кускерттон
ортчим
абитуриент
митрополит
колодча
Демидов
вепс
XV
Вут
Дё
Кандид
Лади
Пом
Ре
РФ
Эд
Эс
Элен
заст
миське
пин
тӧ
##дав
##ner
##мыль
##ut
##ПО
##алог
##ъёсысьтызы
куал
куэз
кутымон
##тыкум
##тыкова
##наос
пуэд
выло
##ожурнал
татысен
##алыке
карысал
поталозы
пӧлтӥ
азвес
воштос
Кылэз
ӝуало
ваемез
Инбам
лыктэмез
шаераз
##анилище
кошкимы
шудоно
лыдӟиськись
будэтӥм
пӧрмыны
##ольён
пусйимы
ивортоно
музъемлэсь
##менъёс
вылӥысен
вуэмъя
ёзъёслы
черкъёсын
кыстӥськы
командаысь
вакытлэн
утчась
##ицит
интыосаз
сервис
Галям
178
пуныез
ураметӥ
Вуэм
синмаське
коллективъёслэн
аспӧртэмлыксэ
##ёрст
кутъёс
алӥз
Соловьёвлэн
песянайёсты
##еством
вирез
вуриськыны
арлыдоосты
наукае
малпанъёсмы
пӧйшурез
эссе
Федерация
магазинъёсы
таланы
ветлытэк
телефонзэ
ожмаськонэ
парламентсы
ветлӥсьёслэн
Одоть
ужбергатӥсьёсты
вузкарись
650
возьдасько
мунчоын
Микл
форумзы
Диск
Интыяськемын
жадёнэз
медаленыз
Шӧдск
дэмланъёссэс
картэзлэн
Архипов
Костром
валесын
методической
Баранов
палатае
финалаз
тупатскыны
приклад
чильк
инфекция
ньӧмыз
басьяськисьёс
Йыртэмасьёс
ожытгес
быть
Вунэтоно
Чебокс
кондици
смс
##кутскемен
солдатэз
Веретенников
Панфилова
Баймурзин
Гидрометцентр
Алангас
стрелковой
белорус
left
Бригад
Вед
Зайн
Пир
гумыр
дурт
кик
нёр
невр
чо
##руд
##жен
##тлэн
##ыя
##муль
##баева
##чь
##57
##ализ
##емед
##арысь
##амдэ
##ству
луылы
шуытозь
валаськомы
##омет
##ямез
##сэез
##лоун
басьтысал
пуктӥськыны
лэсьтыку
лэсьтӥськомы
нуналлэн
малпасьёс
##ельникова
прест
эшъяськисьёс
ветлысал
одӥгъёсыз
одӥгеныз
##есть
тодметъёс
Алексеева
пызьы
ӝутоз
мигрант
горшок
марзэ
шедьылӥз
Маринин
кылдылы
кылдысал
ветлылӥзы
##анъёссы
йылпумъясько
секытъёслы
вузанъя
киыным
йӧэз
через
возьматӥсько
шунам
шунтыны
Гуртазы
Гуртъёсысь
кылбуръёсызъя
ӟучен
витем
хозяйстволэсь
вазиськонэз
пудоен
ёзъёсты
программаосъя
Улмо
бертыл
кысэ
карточ
утчалэ
азьланьтоз
куштӥськон
администрацияз
воштӥсезлэн
ӝытлы
172
вордскемъёс
кузьымзэ
праздниксэс
партийной
коллективе
Семык
Правда
мукетызлэн
улонэд
сётылӥз
Анайлэсь
мурӝол
кисьтыса
адӟытонъёсын
тупатӥз
Першин
ымзэ
йылолъёсмес
Соловьёвлы
мӧзмем
ӝужам
туспуктэмъёссы
творчествоезлы
кивалтэтын
Эмчиос
воштӥськемын
Пудга
экзаменын
улэпесь
кидыслы
Городэ
ветлэмъёс
автобусын
пуктылэм
1953
писательёсын
шырмач
тыметлэн
Греци
Дырын
секретаре
Пуклё
тыршемзэс
йӧноесь
Сюлм
лӧптэмын
Трефилов
##институтэ
сюлмаськонъёссэ
комплексъёс
ужбергатонэн
пуныосты
Кириллова
автомобильёсты
сортъёс
##ont
секталаез
Кабачи
учебникъёсты
юонъёслы
патерын
акыльтӥз
процентэн
Вениаминовна
полиатлон
Президиумлэн
вылтусыз
куноятӥзы
Следствиосъя
Программаез
прокуратурае
сотка
агрегатъёс
##oss
##esta
Чемошур
вагон
столовойын
жадьыса
Огдырлы
спринтын
тополь
##весьёс
элита
Холм
Песяй
Кестым
дисциплина
космосэ
##институтын
Куинез
оргком
Пантелеева
Гузнищ
Управлен
электротыл
ерпеч
фундамент
пуртэсо
Тверь
Vesta
mail
Алек
Дояр
Киг
Муд
Ниг
ПИ
Рем
Ряз
Чал
год
дус
зоры
снай
як
ӟуз
Ӵошкыт
##отэн
##валтэ
##етэм
##лук
##ЗС
##сьы
##алъёс
##анзэ
##еро
##еник
##инъёслэн
##тый
##отаж
кылчи
кылисько
Сояз
##лик
вуылӥллям
сюм
таоссэ
юрттӥсе
напр
кулэезлэсь
калыкмылэсь
тододы
##ашин
ӧвол
поталляз
Ижлэсь
нуналлэсь
##елёзь
Куась
Культур
эшсы
радиос
##никлэсь
адӟемын
дышетскимы
кырмыны
коммент
йылысь
полуф
кырӟаськом
кунул
чакласьконо
вошъяны
ӝуаны
кӧльы
тупаны
шедьтӥды
Мынэ
черлан
будэтӥ
таӵеесь
возьматӥмы
пыдйыл
кыдатэ
Мазь
библи
кунояны
амалъёссы
уром
Берен
Стас
машинаын
уксёлы
Горя
интыоссэс
бӧрдӥз
утялтӥз
потэмен
бырйы
сайкат
тулыслы
редакци
Авангард
улэмзэс
электрич
Тоня
лагерез
вортто
ушъяны
улӟе
Гожтӥськон
темалы
транспортлы
эктонэз
Нылпиез
Широбоковлэн
писательёсты
сузя
Картошка
Пыри
Тулыспал
образъёс
венен
Пушказ
ӧтчамазы
##ариат
Микол
частной
Гуртоослэн
udmd
оломае
инди
ярдуре
математикаен
Кутскон
Студентъёслэн
защ
полициысь
улляло
сентябрьлы
эпос
произведениез
тупатскиз
Агашин
демографи
ведомствоослэн
Партилэн
общежитие
чиед
Леонтьева
аэропортын
Телеф
Пичиос
куартолэзьысен
Мансийскын
зачёт
Мадьяр
бускелез
ипотекая
Сузэр
Лемтэй
Мотор
жизнь
Ымусьтон
Овчинников
кафедралэн
Севастополь
Бывальцева
гонорар
Бело
Гуж
Клим
Маз
Пак
Палэ
Тот
Тонэн
Фильм
Чуж
Чаб
алэ
асэ
васькыса
глаг
жур
знак
лань
рели
товар
ӧч
Ӵыж
##парк
##жа
##слэн
##назэ
##тяр
##ЕЯ
##инцев
##овоз
##оло
##олн
##мырт
##иязы
##илка
##раб
Таӵезэ
карп
пӧлэс
дышетись
нималлям
отстав
адӟылӥ
пиен
##атскыны
сюресме
сюресэныз
шедьтымтэ
вылэгес
лыдӟисьёслэн
вайиськом
пумиськылӥм
югдурзэс
часэз
куспысь
ивортонэз
пыӵаса
садэн
валэктыса
кивалтӥсьёссэс
амалъёссэс
толэзьёсын
коркаяз
Берпум
слёт
кышномуртъёслы
вакытам
спортсменъёслэсь
радиое
радиовер
##ессор
литературае
вокал
висёнъёслы
люкетъёссэ
##аллялэ
быръёнэ
Ёросъёсын
бакчаям
ымаз
серекъям
удалтэмын
мыйык
кулонлэсь
гожтэмзэ
1948
творчествоеныз
нылкышноослэсь
диагност
тӧроос
автоматэз
Байков
жингыртӥсь
керттӥськыны
кидысъёс
кидысэн
вырӟытӥз
Юртэз
геройёсты
Эстония
бубыли
вынъёсыз
Николаевичлэн
лэсьтӥськонэз
кылёд
дэмласал
наркотикъёс
Горбачёв
кӧлон
тэтчало
веросъёсын
кыльысал
Воен
питом
таосыд
ёзэслэн
ёзэсъёсын
пединститутэз
##алимпие
кафедраын
тренинг
кутытон
страховать
уськытӥзы
коллекция
сертификатъёс
Исполком
мотор
Вазиськ
ӵушконъёс
Конференцие
ульчаостӥ
##ёшто
тупалозы
тепло
дӥсьёсын
доярка
Белослудцева
Библиез
ляльчиос
Фарид
Пчельников
сочинениос
ужанрадлык
чепыль
бронза
уездысь
искусств
Булдаков
лӥя
Зооп
Урасинова
энцефалит
Чапаев
полномочиос
Карлыган
Аэ
Гоголь
ИН
Мыш
Пек
Рио
Слуд
Эколог
дзю
иса
лимон
нек
рап
сиськем
тя
тил
уяса
худ
цел
чибориё
юисьёс
юни
ӟук
##атӥсь
##тина
##ьфу
##май
##ӟон
##юзэ
##ЛЕН
##dy
##алын
##етлы
##етта
##озям
путь
##ите
##ошен
##пул
##евъёс
##евналэн
тыронлы
сюрлы
каронэз
пӧяны
пӧяськон
интыослы
тодад
##имылэн
поттӥсьёслы
дунлэсь
пальк
гожез
кызэз
отец
висиз
куры
куроно
сюрсъёсын
йылтыны
синъёссэс
сямзэс
##альд
бырытозь
озьыгес
##агу
вераськемзы
клад
кошкылӥз
кенешимы
вузаз
Кенешысьтыз
кылбуръёсыныз
Владимиров
витиз
вазиськы
ӵошатскыны
герӟамын
Мульт
ёзъёслэн
##ракон
йӧлзы
Калыкмы
Президентэн
Кудым
картошк
дасяськи
агр
агрокомплекс
дырысенызы
ыштӥ
аккорд
изол
Кӧшкем
урамез
дышетэмын
сайтэ
куронъёссы
Шарканэ
чотамын
радиоысь
келямы
дауръёсын
Правительствоысь
куинетӥяз
##комлэн
самовар
ӧръёс
экономической
вайытон
зориз
кулӥзы
бурдъяны
гожтэмъёс
пиосмуртлы
##лощад
ӝужась
Олаын
киужъёссэс
катӵектос
мугъёсын
шуккиське
комиссиез
кышкам
кышканы
така
сизьымдон
сентября
фольклорез
быремъёслэн
Учконо
Киям
Сьӧлык
сюлэмыя
Чаклано
юалляське
комитетын
станциысь
тэтчаса
дискъёс
пересьёсты
Лудкеч
толэзез
##угач
Утял
кияд
Савина
##пери
олимпиадае
Француз
Военной
Вообще
Америкае
картэзлэсь
бертӥм
тупатонлы
ӟыгыртӥз
##сузэ
Чечым
огъетъя
Туктам
Кабин
ужъюртъёс
фракция
Районысь
Куараез
ӝеганъёс
нэнэй
жильы
нимтулзэ
Уфаын
пайдалыксэ
быгатӥсесь
очеркъёс
география
##unne
пукыӵ
##булатор
ӧпкел
мыжг
Адӟытонэ
Кадр
Паска
Нуриахметов
Куашкам
абдра
Гарифуллин
2025
пуштылонъёс
Прикам
##рядэ
Алабго
пойшур
Арнянуналэ
дзюдо
In
Аж
Гара
ОБ
Тольён
Хас
Чинь
Юсь
зул
нам
синэ
хан
ӟабыль
##оход
##дя
##дер
##нан
##киен
##ber
##НОВА
##УД
##ылиз
##тытозь
##адаысь
##уразэ
##акон
##иту
вылонзы
##нояз
нима
огмында
дышы
нылзэс
нылылы
удмуртов
каримы
каръяськиз
юртмы
басьяны
##маос
ворса
##имович
пуктӥськ
нуналъем
##андр
Куп
ветли
беромыса
куриськисьёс
пертчизы
буямын
синъёсыныз
сямъёсын
мылкыдъёсты
кырӟасез
силь
ватӥзы
##укова
бордысьтыз
дуннеос
Ужзэ
яратӥськоды
кионъёс
##ысалыз
вуттӥське
данъялозы
министерствоосысь
гурен
тупатъялозы
кельшыны
дышетӥсьын
ортчытӥсьёс
куараме
федерация
историысь
сереме
уждунъя
179
яратылӥ
##ированной
Милемын
потэмъёсты
зарезе
чакламезъя
бюджетлэсь
##ницын
Православ
калтырт
мерталозы
Воткае
квартираосы
Учеб
Нац
конференци
Самолёт
Священной
врачлэн
мыныкуз
юбиляр
училищеосын
экзаменэз
##циональной
быремъёслы
Спортэз
Учкисьёслы
дурбасьтэ
куректонэз
эстӥськонэн
визьноданъя
образэз
атлас
лякиськиз
Сюлмы
ыжъёс
Аших
атаелэсь
тэрымон
республикалы
лякытгес
камп
октября
репорт
Германия
медалез
Свердловскысь
капитан
шыпытак
лябӟиз
резина
ӟыгырт
Таняпай
куатез
критикъёс
Кышное
ревиз
Ахм
##МИР
колониын
путёвкаос
вордиськем
коллекциос
Редакциын
указэзъя
Молодёж
Тэль
Докья
правилоос
пенсизы
вакытэныз
Жаней
Ельцов
пальпотон
витаминъёс
##ӥныз
юмореск
губерниысь
гастрольёсы
Богомольный
значит
балалайкаен
Автомобиль
Википед
Лаборатор
дэбесъёс
мыньпо
тренажёр
Кардаполь
Кутузова
зӧкт
телеграмма
тротуар
Кигбаев
SW
Ведь
Зел
Зенит
КОР
Лих
МАР
Тынэсьтыд
Фал
Фен
Хом
Цир
Эля
дума
йол
нет
ру
яна
##вань
##дот
##сем
##таны
##театр
##код
##СА
##тӥсесь
##атаз
##олаз
лудын
##екет
тӥяськем
веръя
##ияров
тыриськом
пӧсек
тодын
##ими
##имовна
потылэ
дунъясько
адӟиськомы
висисьёслы
куронъёсын
кыкназ
быдэсъязы
##ураос
бырек
пыриськисьёслэн
ӝуам
ӝутӥськоз
тупатыса
ужрадэн
шаерлы
шедьтос
кошкеме
котькудзы
улосчимы
лыдӟиськом
люкылӥзы
йӧтӥзы
109
Ижкарлы
сюлмаськисько
кылбураны
кыдам
кырӟанлэн
##ологической
черкысь
кизизы
Стр
бертыкум
класслы
министре
унояз
##ушин
Может
ужъёстэс
герӟаськыны
бурмемын
лэзиллям
скалъёссы
куаретэ
##кынмон
историзы
излэсь
пунк
сценкаос
урамысен
утялтӥсь
партилы
окто
коллективзы
кышноен
Нырысетӥзэ
вӧзад
сётъялозы
кисьтӥське
починка
Колон
поръян
премиосын
Автозавод
шудонъёссы
тупатэ
кутылӥзы
езлы
армилэсь
килограммъем
кулэсмыны
экономик
сэрего
чорыген
##ъесыз
##ествие
кулак
библиотекаез
вӧлмыто
иськемлэсь
пуромем
ӵужатай
шуккыны
тыметэз
факультетаз
транспортэз
водителез
планет
куарусёнысен
Пенза
ёзэтысьтыз
дурбасьтӥсьёс
Новиков
парламентарий
1954
кузьмалозы
сюлмысьтызы
Лэсьтэмын
психиатр
нылызлэн
##ina
550
Ӵошатсконын
лӧптӥз
паркез
Валентиновна
особ
выдыса
Матвеева
Кирилловна
Пуштрос
чупыр
кырӟамзэ
Володь
Куарагур
библиотекаосы
ведомствоос
Партия
тугоко
сиземын
композиторлэн
качы
##центрын
Болтач
администрациослэн
педколледжын
ӟигарыз
комитетэн
синучк
поколен
гарант
выступать
точно
фантаст
Андри
усадьб
магистратура
кинофильм
Револю
Куспазы
сяртчы
Наби
вклад
Бавлы
будущего
Кудымкар
Дус
Ист
Или
Йыг
Кош
Кияз
Лэз
Мень
МГУ
Ри
Риф
Тыбыр
Фонд
Факел
ЦИК
санк
юкамен
ӵокс
##атӥзы
##рев
##сул
##ay
##nat
##мисько
##чаос
##ангел
кумы
кулыса
##уров
##овня
ужаллям
ужасесь
аръёсыз
кылим
кылынымы
тӥяське
огъетэз
полы
погыр
карим
##сиен
интытэк
басьтӥськод
учхоз
палкышно
утиськись
эшъяськем
бадӟымъёслы
адӟоды
пиезлэсь
##иец
чакласькыны
йырмес
кӧлэм
оскисьтэм
адямиосмы
кузяз
кузесь
##анима
шедьылӥзы
азинтӥськоз
секытъёслэсь
люкалозы
люкиськем
##обной
будэтозы
##яллязы
Татьян
ивортиз
турско
министерствоез
амалэ
суредаське
Березин
котькудмы
Инмармы
кыстӥськон
Кыкто
шуръёсын
##ехнической
ужъёсмес
Ассоци
тазалыке
куараё
тылӝу
узырме
##ихина
проектлы
косонъёс
нюръяськонэ
##рокодил
трик
йылпумъянъёсызъя
поряд
артистъёслэсь
опытэз
Кизён
йылолъёссы
ӧрекч
экономиказэ
ӟечкылало
курадӟисьёслы
лулчеберетлы
вирнуналэ
Математ
сьӧдэк
чорыгась
Самиг
чемод
залысь
такмак
синйылтэ
Федеральной
инкуазьын
укноосты
Путинэн
##тодор
ымныръёс
ветлэмысь
Кузнецовлэн
салаз
куасьтэм
1955
экономикаен
Вормонъёс
кырӟасьёслэн
пусъёмы
фронтов
воштӥськонъёслы
Гроз
милицилэн
Вордски
Калашниковлы
номинациосын
кулэмез
Лекон
веник
кыдёкегес
кечез
часте
Газетын
Закиров
сюрозы
программалэсь
азинсконъёсыз
Кулон
ултӥяны
Шӧдӥсько
быдтонтэм
чутыр
фоток
##вӧтам
волятон
быдэсъясе
Екатеринбурге
бабайлэн
мыддорин
суредасьёслэн
Ветеранъёс
Тюменьысь
мордваос
ӟичыос
джин
##НИИ
вожатойёс
ВОШ
Кузьминична
Можгала
героиня
Институтын
ссыл
Олокыӵе
сьӧрады
Ваньзэсты
Бочкарёва
Эдэйгуртысь
вышкы
пулемёт
Февраль
лыдӟымон
падеж
Флюра
Снежана
Вконтакте
тырттэм
udmdunne
Ари
Вместе
Кать
РТП
Суп
Сяме
Ура
Чим
еще
иск
лингв
пеле
тари
чума
ӟуст
##нина
##куды
##этэз
##уу
##гия
##бина
##фи
##ЭС
##енской
##езнай
##урс
тук
##лип
музэ
мульы
пӧя
юрттытэк
тодод
поттэмез
потаськомы
палёмы
кутскомы
бадӟымзэ
куремзыя
кышетэн
кырӟалоз
учкылэ
выжыса
пыриськиськом
Кылиз
ӝутӥськ
оски
эскерим
эскеронэ
нылпиосмес
экты
шедьтытэк
воземез
ветлылӥ
кошкыкуз
анайме
улосъёсты
элькунмыя
выриськомы
пумитъяськыны
городъёсты
вузын
киы
сиёнлэсь
Нырысети
выжыё
##ипаж
ожлэн
кырӟанзэс
ортчытонъя
Кузон
палэнысьтыз
коркаязы
ӵектозы
тупатонъя
113
##скийлэн
вамыштэм
кылдытъян
студиысь
дасяськомы
куштӥськизы
##аллаш
узыресь
ошем
спортсменлэн
Малков
изё
Галил
Галерея
висёнзы
Карлэн
мугорме
дуноесь
сётъяно
Ужрадъёс
коч
шудонъёсыз
##гыра
ӝожтӥськиз
Дунъёс
буйгаз
йылолъёсыз
басьтомы
ӝуждала
ваёнъёссэ
катанчи
туспуктэмзэ
Эмъясь
Гожъям
ӧнерчиосын
тодосчиосты
умоезлы
экспон
книгаоссэс
дӥськутсэ
кырӟасьлэн
Орех
мӧйыез
субъект
писательлы
Христослэсь
связ
лыдӟисьёсмылы
ӵектонъёссэ
милиция
Чайковскийлэсь
басьтӥським
шудэмзэс
буйгато
буйгатскы
Атайзы
бервылъёсыз
##еяысь
Педагог
кыльылы
Ӝытъёсы
кияды
чечен
куриськонэн
куриськонъёсты
инструментъёсъя
Книгаез
пелл
##кузё
Дышетӥсьёслэн
химияя
филармония
серекъятыны
Скоб
Эрико
кырӟамзэс
регламент
сектала
ужъюртлэн
пӧзись
турнан
Ермолаева
учреждениосты
эстрадаысь
февральысен
пужымъёс
Патриот
зечкыл
##булатов
Берыктон
Республикалэсь
патриотизм
регистра
сутка
вӧлдэт
Аспӧртэмлыко
дискотекаос
Пельняньлэн
мыкыр
бышкись
Гимназ
молокопровод
Мерзлякова
Рамиль
Небыт
носки
image
пекля
Бронислав
человек
ОГАЗ
лотерея
##стаграм
Бразили
Йӧвылэсултон
Дёбы
снайпер
ВЛА
Гогол
КЕН
ООН
Олимпийской
Рожд
СН
ТА
Ха
атыкай
было
воже
замет
клоун
лазег
осын
сне
тылы
##хем
##шт
##ЕБ
##чеш
##осыныз
##ениен
##скиез
##ателе
##амп
##озязы
##итан
##ышлы
##икмах
верад
дышыса
пыриллям
карид
интыямы
юртъёслэн
басьтӥд
конфет
нуныкай
аспортэм
потонэз
поттӥмы
##исьёссэ
малпалляз
ути
пруд
Куанер
куриськыны
школаысен
синӥз
егитгес
воштӥсьёсыз
йыромем
кӧль
эскером
эскеримы
эскериськомы
шаерен
Валаса
шӧртчи
Оген
кельтозы
кенешлэсь
котырамы
сурам
городок
вазем
люкон
люкиськы
люкаллям
люкиськоно
тодмоесь
##шкова
пумиськылэм
амбулатор
вормисьёслы
выжыяз
пыдэ
культураенызы
книгаослэн
вазиськимы
музъемзэс
##аезлэн
Мувӧй
устоен
толэзьлэсь
юрттэттэк
Быдӟ
шараяське
шараялозы
дасяськисько
куштӥсько
кузёяськиз
чидалоз
ошылэмын
потыкуз
131
Карина
бусыоссэс
нюръяське
султоно
вось
бырйиллям
пушкысьтыз
атаед
лэчы
Пиналъёслэсь
пӧрмытэмын
сётонэн
кылдэмзэ
опытэн
УдНИИ
азьпалтӥзы
Таизлэн
ӵукнаозь
предприятиосы
коркаосысь
семьяосынызы
261
улӟытоно
будэмен
будэмзэ
кынар
кынме
Музон
сяськаё
редакторезлэн
Лыдъян
жаген
шудӥмы
коммунистъёс
физкультур
фермеръёслы
Котькин
сквер
куасьме
черодэн
1923
куректы
Красногорскысь
Будэм
станциос
Дыраз
банкысь
кылзӥськыны
кылзӥськись
пересьёслэсь
драмтеатр
бервылзэ
чиля
почтаын
песок
сортъем
Кышномуртлэн
кризисысь
Такъян
повестка
вискам
##вакыт
кубистаен
мышказ
Нокинлы
Нокызьы
фонтан
паллянэ
системаез
гужемез
Испаниысь
тодметъёсыз
Люкаськемъёслы
Журналистика
##бышев
диалог
огинын
налич
работ
телерадиокомпания
паймемзэ
Котькытчы
фабрика
Билет
Комиссия
комедия
Кореяысь
дружин
Трубашур
инбаме
плёнка
Вӧйдыр
госпитальын
Осипов
Шузи
Краснопёров
эпидеми
светофор
Бехтер
Гузнищева
##ЕЯСЬКОН
ОГАЗЕЯСЬКОН
ph
Географ
Зато
МФ
Сель
Эмес
боз
день
договор
есть
зд
рент
сиське
фолк
ыме
##рели
##нин
##ыга
##ютэн
##ћз
##енция
кулэсь
##емент
##ака
кылъёслэн
##омемын
Собыдӟа
тушо
##аськонъёс
вуиськом
веръям
пыразы
пох
ёросаз
##етӥез
##ёнка
##ёнтэм
юрттэмезъя
сётӥд
##лыкъёсты
пукисьёслы
лэсьтӥськод
##ейной
дунъяське
дунъялоз
##ствоез
кадьёс
быдэсъяса
мылкыдыныз
##льтыр
выжоно
пӧртэмез
вошъяса
вакан
##алатэн
кӧш
секция
эскеры
Инт
лыктӥмы
Мард
Марфа
##ково
элькунэ
##остран
кыским
колды
аресам
107
куиньмо
ортчытъясько
сюлэмдэ
палэнтӥз
кужыме
Старт
крезьгурзэ
ӵектӥсько
Кыказ
тупатъямез
кышномуртъёсты
##иное
комплект
дышетӥсьёсмы
акциз
проектын
серд
##аменызы
воргоронъёсын
нюръяськись
сётиз
премизэ
першал
инкуазе
алӥзы
курадӟонъёс
ӝужытэсь
азинтонэ
лагерьёсы
тӧлъёс
кышканэз
бугырес
Байкал
Гожтэм
инкуазьлэсь
Лыдэ
искусстволы
Кырӟанъёс
пытсаськ
вытъёсты
##отациос
Котькинлы
пеймы
коньывуонозь
объектъёсын
##ИНИС
сьӧлыкъёс
кизилиез
эрзя
пальпотӥз
организация
Кельмак
поездын
вандӥ
Ленинградэ
кабинетын
Фоминов
тыпы
лобӟиз
заочной
Чуракова
синмыным
кутсан
чильпыр
биатлонистъёслэн
Дышетсконме
Кивалтӥсьлэн
пичиосыз
судьяос
1905
совхозын
кельтоз
мотозавод
Сюрс
Япониысь
Ӝужась
Чувашиысь
райкомаз
патруль
камераос
ресторан
музыкальной
Ворончихин
огназэ
Сырь
Лёша
герзаськем
Татариысь
ипподромын
Селыч
Медицина
Бальзю
Ерохин
зарядка
Ионина
Чунаева
шымырт
Lada
УЛӤСЬЁСЛЫ
ВЛАДИ
Бух
Прон
Смен
Салим
аль
вег
кран
мл
сд
сч
торд
уясь
убир
штор
юалозы
##рег
##выжы
##далы
##исэз
##как
##ульт
##бук
##ЛОВА
##ЭК
##HT
##алиос
кумыш
##скымон
сооруж
созыв
##уред
##оле
ужпӧр
арест
##сьёсын
инъямын
##ожениос
сюе
##ивосто
пырам
удмурты
наст
азьвалтэ
участо
лэсьтысал
##ейлэн
нимме
прим
манси
##улова
кырӟамы
тунгон
Монья
воштозы
ӝутӥськыны
ваись
тупазы
огазеяськизы
Инесса
##спектор
шедьтӥськы
##абрик
коньдонэныз
Мынӥ
культпросвет
колош
яратӥсьёслы
секытысь
секытъёсыз
вузасьёс
##облок
Владивосто
##еприп
вуттӥллям
кылемзы
данъяз
кыдоос
вожо
часъёсын
вазиськисько
ивортонъёсты
ожъёсы
ӧти
мать
127
Люкам
област
командаын
Быдэн
Асад
студилэн
кузпалызлы
бичетэн
спортсменъёсмы
Гали
##ировкаос
Вуэз
кузьымлы
мугоре
##акумы
кышноезлэсь
администрациенызы
журналистлы
дӥнь
##алляса
шӧдӥськыны
оперативной
педт
директорезлы
кулэсмемын
Урмон
чузъяськись
лулчеберетсэс
вормонъёсынызы
академик
кылбурчиен
карисьёслэсь
шӧдозы
вожвылъяськонлы
ӵошатсконазы
кисыос
Малпаськомы
Италие
коньдэтэ
Чеберлыко
Юкаменскын
Ново
Мылкыдыз
пыӵатэм
площадкаосын
юалляськизы
дэмланы
жаляз
Гракысь
##ing
Агроном
очки
Трен
микроб
пеймытын
эмъяськонниын
телефонэ
матэктӥз
компаниослэн
ужбергатонлы
испан
гондырез
силё
Палэнын
концлаг
коӵышъёс
ӧтьылӥзы
пожар
чиньызэ
издательстволэн
Бикбулатов
нискылан
сезонзэ
Шуркынмон
льгота
лопата
исполкомез
Мордовия
данаклы
шӧдонэз
язычникъёс
кысӥсьёслэн
вылтуссэ
призёр
Родионова
Батыръёс
Утчан
Гудырикошк
кайгырон
тиражез
термин
югдытон
мелод
поколение
Лёгор
следствие
Эксперт
информатикая
Моисеев
пӧсьтолэзьысен
заседан
Сессиын
Гильман
Арзамаз
викторина
Некрасов
Ломаг
мажес
лифт
карнанэн
отвагу
Няньк
ланьыр
##еприпас
Бам
Вын
Гит
Дет
Кой
Мельников
Нем
Право
ФС
Част
Чебересь
Это
аэр
азыса
веме
гус
деся
жог
кемын
ла
тай
чак
черт
чул
ялэ
Ӧм
##коб
##ЕЛЬ
##НЕР
##юрт
##ПС
##ML
##AD
##ерлэн
##еныды
##орож
##амед
##оволь
##мымтэ
шуб
кылб
##катэ
##иськемез
##росс
##евен
дышоз
нылок
пырай
пыреме
тыриськыны
пӧяськыса
интыялозы
##ужто
ӧвӧлтэм
нимамын
меди
мукетъёсаз
курен
курсэ
корпусэз
ужатэк
Инмын
сыӵеосты
пичиезлы
кошкысал
чеберске
сураны
Кунпуш
Армен
огазеяськонзылы
люкылон
##ашкин
пӧраськем
эмез
Кытӥяз
пыдъёссэ
музъемзэ
кивалтӥсьёсмы
амалъёслы
корказь
126
вӧлмо
берыктозы
ватос
Кудӟытӥсь
картэзлы
утчаськыны
кельшылӥз
Адамысь
писателез
парадэ
лэзиське
кузёясько
вордӥськонэ
оштолэзёзь
дышетсконниын
урамъёсысь
Макс
висёнлы
Карамас
чылкытатыны
управлениеныз
кылзӥ
##ецъёслэн
сётъялэ
келялэ
Комн
йылпумъянъёсты
##гырмен
эшъёсынымы
дыртӥсько
езъёс
кенэм
Ильина
пуромы
радъянэ
мыныкум
каблук
комиссиысь
выжыкылъёсты
тодосчиослы
Дышетӥсе
бускельёсыз
солдатлэн
Вормонлэн
Дасо
Эстонилэн
шонтӥ
Чеберайёс
группаосын
дӥськутсы
Акыль
пытсан
компьютерез
сӧсыръёс
борддоръёсты
Изгурт
мамык
Олялэн
чигиз
Котыраз
возьдаське
основ
лушкемак
куалекъяса
интернетысь
кузпалызлэн
пенсионеръёслэн
художникъёс
индылӥз
жадемын
ассоциаци
Дышетӥсьёслы
ванен
ванна
мылкыдоесь
##ремонт
##круж
Первый
текстъёс
дядя
Усть
этапаз
дауртэм
Террор
визыл
романзэ
леспромхоз
гопо
офицеръёс
ворекъя
Сюрно
шарф
Пӧрмиз
пуйыос
inner
тӧлӟиз
куака
моӵ
заявлен
чиновник
тюрк
санаторийёсын
благотвор
комиссар
Мансийск
Столб
юридик
кодексысь
Липет
Рахим
бытовой
контора
бомж
взносъёс
Венгрия
Сосновка
Веретенникова
магнитоф
Газетэз
именно
Поволжьеысь
Зямбай
ИЖКАР
ВОЗЁС
теплоход
Зоопарк
КЕНЕШ
МФЦ
##HTML
innerHTML
Part
БА
Бах
Вум
Гущ
Деле
Исак
Мала
Олекс
ПР
Практ
Туз
УЗИ
Чырт
Юон
бӧкс
васькыны
госп
гуманитарной
знамя
рис
режис
сел
тык
уяло
харак
эмо
ӟольгыр
##рё
##дал
##ёме
##тазы
##форма
##ds
##алуй
##иноос
куяны
##дмылы
луонэз
##иослэсь
вук
сюанэ
огдышем
Удмуртнефть
адскыны
дышозы
##истка
карлы
пӧзьы
##маысь
котель
кивалтонъя
Кубашев
мыня
сямъёсыз
усьтӥм
вошъяськись
сюресмы
Кылъёс
миш
возиськоно
вирт
Арво
люкыл
##ановна
##ялляз
сюлмаськиськом
вожъяськ
сюлэмъёсазы
Азьлане
программаяз
##ицие
бертыло
##ымтэен
малпаськиз
центрлэсь
Эшт
шутэтскем
заводлэсь
концертсы
Малпал
дышетсконниосты
иськемъёс
вокщё
##ическая
165
ватсаськоз
Волковез
Пиналъёсмы
##алляло
Правительствое
оруж
быръёнъёсты
лябен
педло
вужез
Медла
йылолъёсынызы
тележ
куашкалоз
вуриськись
документъёссэс
ыстӥллям
урокъёсы
юанъёсъя
куазьлы
киужъёслы
##ьяновна
вормонлы
кынтэм
быгатэмзы
Уйвай
шуккон
ваньбурлы
Семьяос
Азиысь
артистъёсмы
Гожтэмын
куроен
лэзьыса
арбериоссэс
эриксэ
##ефть
гурезьёсын
Йырси
Йыруж
вордонэн
ворсаськиз
Кырӟасьёс
пуштроссэс
кесяськыны
майысен
1952
уйпалась
Капка
кулэмъёсты
кӧло
ужбергатӥсьёсын
Сюлэмез
шудэмзэ
лякиськы
лӧпкы
Михайловлэн
320
Октябрьлы
Рябин
Уткин
Загребинлэн
произведениоссэ
гурезё
Празднике
Мурӝол
Вакыт
оркест
сӧриськем
Бикуз
тӧрозэ
##ангели
дӥсям
уськытэмын
Песянайёс
издание
село
Витальевич
Центральной
Отечеством
дугдытон
бускельёсмы
Фермаын
Англиысь
муромытыны
Агропромышлен
садикын
Сандугач
патриотической
Насьток
Ужбергат
##атуралэн
дежурной
Врачъёс
кышкыттэмлыкъя
Соколов
Библиотекаын
фамилизэ
Беляев
Пыраклы
Вятской
ковёр
монастырь
Лондонын
Чибышева
электромехан
халат
эркия
мемориал
Садовников
ӧпкельыса
характер
yan
Влас
Зӧк
Лив
Лужан
Мани
Раб
Русь
Сред
Ти
Тум
Хак
Чида
Шимучыр
Юэм
гитар
пнев
ролик
таре
##аты
##зев
##ога
##сист
##ёп
##луж
##эш
##уальной
##НО
##oy
ноября
##ерной
##изылэсь
##отехнолог
##ится
##екст
туал
##айк
уллян
##ливо
##энд
вуиськы
поталэ
пукиськод
улондэс
кыкети
сямъёссы
манеж
будӥмы
кырӟай
выжимы
сюресаз
кӧм
тупамтэ
эскеронэз
шедьтӥд
возиськись
кинок
кылдэс
Ваньзылэн
ветлом
элькунлэсь
сӥзиськом
ужпумзы
вӧлэм
вузанэз
пумиськись
пусйымтэ
вормоно
ӟуче
ӟучез
ӟучъёслэн
Кый
##потон
вожын
вожзэ
визькыл
пыӵалозы
журналысь
Коньк
Конгрес
садлы
луэмед
куноез
куноосын
сюлэмзыя
Верано
Вераме
тырмытыны
##ингъя
программаосы
гуръёсын
бертӥськом
шуръёсты
вамышъяса
депутатлы
Тӥгырмен
ошпи
космет
ӝытсэ
Толшор
висёнзэ
утялтозы
Карысь
выллемгес
дышетэмез
дасьсэ
ньыльмос
администрацилы
Пиналэз
музейёсы
чурез
Красная
операторъёс
Перме
бакчаысь
кулэстӥзы
квартираяз
Анаелэн
Материал
валэктонэз
вӧлмытӥсьёс
возёслэн
емышъёсын
ушъяськ
Нылпиоссы
ветеранлы
палэнэгес
туспуктэмъёссэ
кинолэн
шуккизы
тубе
Артек
##лёзь
Сюресэз
вырӟыны
пичиосты
технология
апрелёзь
автобусъёсын
пӧзьтон
будосэз
Писательёс
йыртэмасез
Дырыз
Конкурсэз
фильмъёсты
йыружез
операя
возьдаськись
водительёслы
грамотаез
Законъя
канфет
Русский
каньылэн
поселениысь
##ans
крестьянъёс
гожъяськисьёслэн
Шумпоттэ
крезьг
бугырто
Пушина
Женева
фамилия
Ӝыныез
зырано
литръем
государстволы
повестез
сессиязы
гольтрес
Судья
исполкомаз
Бадзым
сеть
коллекци
тодметъёсъя
диссертация
языка
пайдалыкез
нормат
пуктылон
Буйгат
усьтӥськемын
паймытъя
Прокопьева
дискотекае
обкомаз
славы
республикаосын
структура
Парижын
флеш
радиозаводын
Абдул
кульч
аляк
Дядяй
триб
Уваров
реабилитацияя
туберкулёз
оградэ
Рогоз
Швециысь
шрифт
Тымет
мусульман
дукес
трагед
дусым
Туктамышева
##релиоз
izh
Аса
Блин
Виз
Гадь
Мел
МАТ
Пож
Поск
Сысо
Ух
Усп
Шля
бокс
васькем
кас
мис
мытыны
пасьёс
член
Ӟег
ӟезь
Ӵын
ӵыш
##зак
##итэн
##ыпи
##ec
##бо
##ӟыны
##АСЬ
##ИЗ
##sp
##ќл
кутӥськозы
##емаш
##ским
##атонэз
##ази
##мытэк
аръёслэсь
кылымтэ
туфли
вуытэк
тапалан
##пуз
##икар
##ияе
##исман
нылэн
удмуртъёсыз
удмуртской
басьтӥськоды
дышетонъёс
дышетонэн
потасько
люц
дунъяса
нылпие
гожер
адӟиды
адӟонтэм
берал
дышетскиськом
висем
одӥгысьтыз
куриськи
пиед
йылыз
мылкыддэ
положен
бырод
##лямы
кунъёслэн
пыриськемын
сюресъя
сииз
сизьыл
Кылемез
йыро
кӧкы
тупам
секытэ
оскиськон
огазеяськыны
эскерыку
лыктӥды
вирту
яратэмез
аресэз
вузъёсысь
кӧнязэ
вожъяськон
часъёсы
ӧжытлы
Верало
Вералэ
тырмытозь
123
кужыммы
##ушина
Тодаз
азьвылэз
Коркан
малпаськытӥсь
кылдытъясь
паралимпие
дышетӥсьёсыз
политехникум
ыштыса
бӧрдӥ
бӧрсяз
концертаз
изобрет
Прот
котькинлэн
утялтонъя
синмаськон
пушкад
паськытатоно
атайёссылы
берытсконо
##еменым
##тысалды
перв
Белоз
лэсьтэме
Шумилов
Дуныз
алле
Синву
Иркутск
нуллӥсько
дышетскисьлы
вирзэс
зорыны
нюлэсъёсты
вые
фермаосты
коркаоссы
шоркарлэн
гуосы
##ографияя
тылпуэз
357
модерн
шӧдоз
лэзьк
хозяйствоослэсь
гудыръяса
будэтонэз
Орина
пуктылэ
Дарал
мартысен
Коньдэ
этаже
##ОСТ
странаысь
сӧсырмыса
кырӟасьёслы
эскеронъёсъя
жаляны
кулэмъёс
южтолэзёзь
Касимова
сьӧлыке
сюлэмшугзэ
шӧмъем
Висисьёс
куалекъя
куалектӥз
психологияя
чиляло
Войнаысь
пиньёс
Кышномуртъёс
Уралысь
Жени
Бусыын
продукциез
##акузё
мультик
властьлэн
лауреатъёсыз
визит
Развитие
промышленностьын
каникулъёсы
нерад
Юбилейный
Египетэ
конференциосы
наркоманъёс
пужыятэм
##ЕСКО
Ульчаын
толйись
Томск
Новосибирскысь
Богомолова
##пископ
грамматика
Мерзляков
Матэктэ
Ненец
диссертациме
барабан
сварщик
Сорок
вакытысен
профилакт
Льв
координ
КАРЫН
Космонавтъёслэн
йырвиым
Ижавиа
Аспирант
Пригородный
ВЛАДИМИР
ФСБ
yandex
Ася
Грант
КЗС
Лум
Окт
ПУР
Трам
Хотя
Цвет
Шо
Юность
бл
банд
гог
говор
дотациос
его
лим
лыос
мне
миськон
нев
ши
ят
Ӝук
##вёрст
##дой
##держ
##сус
##таськем
##хим
##банов
##tem
##онез
##оник
##енёв
##орос
кусо
кылыд
кыллем
пуст
##иськытэк
##ектэн
улл
##ожден
поны
тырымон
гуртъёслэсь
##ирова
кивалто
выльдыса
радъяса
радъяськом
йылэмын
адямие
мылкыдъёсын
мансиос
чакламы
учкемзы
пыриськытэк
вошъян
тыршемын
сьӧдм
##алыч
секциосын
осконъёс
эскерисьёслэн
нылпиосыныз
элькунлы
чеберлыксэ
азинлык
вырозы
китӥз
кузьдалае
эмсузэ
куиньзэ
##овичез
Вороб
валэктэмын
куноосыз
возьматъязы
сюлэмъёссэс
нылкышнолэсь
вуэмзы
машиналы
машиналэсь
вӧлъяз
ужъёсаз
119
Президентэныз
куарен
куарез
Евангели
шудонлы
уждунзэ
улосвылъя
Карипов
бюджетъя
администрациезлэн
кисьма
кисьмам
Адямиосты
басьтэме
ӝӧквыл
опять
Калмез
эшъёсмес
эшъёсылэсь
дыртоно
армилы
туспукт
алф
азьпалтыса
показ
кенъёс
Нуныкай
Шорам
Паймем
фондаз
будэмез
Вылын
Вылез
законод
ыбем
Артысь
жингыртоно
керттэ
керттӥське
правоос
кӧсут
Спортын
Аминь
Турциысь
мылыз
кадастр
дурбасьто
выжыосыныз
лэсьтӥськисьёслы
видеос
уйпалаз
мынӥллям
Финляндилэн
Дуннеез
Вахитов
пыриськемъёслэн
мунёез
парсьпи
Шкляевлэн
Треф
эмъясьёслэн
тыршисьёслэсь
опера
данъяськиськом
возьдаськыса
1915
азьветлӥсьёссы
грамотаен
Мусое
бригадаос
поттаны
сапегъёс
пазяло
дӥсяно
произведениосыз
Христосэз
этнографической
палэнынгес
Кайгу
кырӟамзы
вискамы
Сабрек
продукци
оркестрен
Солн
фракциос
сертифика
лопат
кырзанъёс
взвод
Мордовиын
долкаса
интернатысь
Сундур
Прокош
Радионов
дышетсконниосы
Конференция
комиссиослэн
Азьмуртлэн
призэз
боеприпас
Какся
Япониын
Тямысэтӥ
Ефремов
Сандыр
чильпам
грамотаосынызы
Насьта
Паспорт
Кавказысь
Профессор
Кылзӥськ
Новосибирск
вирзӥбет
лысву
Архангельск
Ӟандыгар
Австриысь
доска
ларёк
##АЛЫК
Галичанина
Островский
законопроект
Эвелина
Протопо
Загуляева
ПИЧИ
трикотаж
Апол
Бун
Бис
Дель
Жон
Жуков
Лыс
Нестер
Олимп
Ортчизы
Патр
Пласт
Рок
Тып
Уск
Ыс
киосты
лиз
малыке
рит
риф
сей
тран
##пин
##ишев
##ним
##туш
##ъедин
##цизылэн
##быж
##алтэм
кутӥськы
ужатон
##одэ
пулэз
##екун
##сьёслэсь
##аськонэ
##нок
вуюись
огкутскемен
##тонтэм
верамы
##илиос
попеч
##оногов
юртъёслы
малэсь
##ично
##ьясь
##тӥсьлэн
208
удар
палдур
утьы
берган
бератаз
дышетсконэз
курсэз
##ести
быдэсмем
нырыз
адямилыко
пуссэ
бырись
кунмылэсь
учкимы
пыриськимы
##угал
оскемзэс
семьяеным
воземзы
возиськы
кошкылы
чеберъямын
кенешлы
сураськемын
Никеш
учырлы
Владик
сиёнлэн
шунтӥськон
вуттылӥз
данъясь
пиоссэс
ивортэк
садзы
Муст
тырмытон
##ингва
бертыкуз
берыктӥ
берыктӥсьёс
Президентэ
кылдытоз
куараосын
ужезъя
парсьёсты
Вотяков
лэзисько
пушъе
азьланьтоно
кузпалме
куштӥ
ыштӥзы
Макарова
Карса
##уллинлэн
сайкал
чотам
Курб
##структор
Шумихина
Данъяськымон
ӟечкыла
юбка
юбоос
бурдъяськиз
кандидатэз
емышсэ
киосазы
фондысьтыз
Нылпиосмы
каток
Татарстанэ
пумиськонзы
Президентэзлэсь
диас
автоматъёс
выжыкылъёсын
ӧсъёсыз
Санников
Киясаын
керттыса
290
нунызэ
Трой
Вожой
Вождэ
правооссы
вӧсяське
эстыны
печатласько
Адӟиське
пӧзьтыса
губиос
куарусёнлы
лэсьтӥськонлы
коньдэтаз
ӝутонын
номинация
образзэ
висъясал
420
возьдаськы
зарезьын
тодӥм
телевизорысь
эшъяськи
эксэйлэн
утиськоно
списокез
шаертодон
##нянез
бугыртӥсь
кафее
декрет
цехын
молитва
калгыны
висъетын
Районын
эмчиослы
Юриысь
Бускельёс
сюжетысь
Сабур
корреспондентъёс
Анисимова
географияя
Чечняе
батаре
##ещание
Доклад
Предприятие
автотранспорт
трудод
комитетэ
ӵабыш
самолётэз
конвейер
Шутова
ченгешонъёс
регистрация
##rip
Кожильысь
##ождение
Штанигуртысь
могӟетъёс
Трифон
корпорацилэн
Беляева
энергетикая
чарка
экспедицие
оградын
самодеятель
жизни
пурккет
чорк
Кожевников
агропромышленной
Герӟаськемын
культиватор
Юсси
акылес
Библиотекарь
видеоролик
писателен
Теат
йыртӥян
глагол
Вумурт
Вара
День
Если
Зык
Кич
Мог
Магнит
ОР
Сельхоз
Топ
УР
Удм
Чырты
гоно
доль
мотик
ори
олимпийской
павиль
сике
тысен
юл
яг
ӵаж
##ровой
##тисько
##кало
##av
##гро
##ГРА
##ОД
##МЗ
##ig
##џе
##атъёсты
##амыр
##овина
валамез
кылозы
вуом
сюдыса
##иксъёс
вералод
дырдэс
##истлэн
интыетӥ
наблюд
##имен
пукимы
паларе
улонады
Куазез
мынэмын
##оканал
быдэсъяськемзэ
синъёсаз
быронэ
быректэм
вераськемын
лыктыку
Валаны
##брат
кудзы
йылпумъялозы
##остуд
кыска
Ужало
лыдӟытэк
выриськод
пумитась
вайим
йӧтылӥз
Кенешезлэн
выжыеныз
пыдъёссы
пыдчинь
часовня
##естиваль
шугек
ӧтёно
валэктӥсько
вылӥгес
министерствоосын
пиналъёссылы
сюлэмлы
анек
124
##ительный
черклы
Стро
ужамъёс
Кылемъёсыз
тупатъяз
макес
шулдыресь
утчаське
утчаськыса
##ӧкы
Бадӟымесь
заводэн
юанъёссэс
юанэлы
урамтӥ
потэмзы
u0436
ужаломы
коллективъёслы
бюджетсэ
кышноосты
тэро
Анайлы
янгышъёсты
дасяку
вераськонмес
Финиш
ӟечкыласьком
огкылын
документъёсме
зорылоз
мӧзмо
кезьытгес
фермаез
##амелы
басьтонэн
жугиськыны
гидку
куазьлэн
ӵужай
будэмъя
гырпум
ӧтчаме
кынь
кынмыны
Дышетскем
Дышетскемез
туспуктэме
лагерьысь
киноысь
шуккиськыны
таблет
залъёс
ӵошатсконзы
керттоно
Секытэн
Вождэс
шонерт
дӥськутсэс
чемпионъёс
бубыл
Турциын
парламентсылэн
басня
пусъемезъя
кузьмалоз
будосъёсын
##ГУРТ
картошкаез
актовой
ыжгон
##АНОВА
выдӥз
висъянъя
ӝегатэм
Кочи
Басьтэм
барак
памятникъёс
лябӟемын
Гондырысь
Ленинградын
интылэн
ужъёссыя
гражданинэз
адскисьтэм
Эрмит
вутскыны
крезьгурчилэн
Сайкан
храмез
шекъёсты
ӝегаса
Музейлэн
правление
правленияз
вазиськоназ
пластмас
тыриськонъёсты
соборез
верасалды
Шоркарын
октябрьысен
юмшаны
Канадаысь
асэнызы
наградаосын
Республикамылэн
тетрадьёс
кокч
фабрикаын
Билингва
госпитале
лопырске
ӧжытэн
##факс
движенилэн
Эгралан
Сюлэмыз
лирика
кодекслэн
пӧрмытскем
кусло
хозяйствозэс
Игнатьева
Четкарёв
вадьсаз
кросс
Песянае
сьорын
Шаертод
пистолет
Деряб
братэ
Валишин
Африкаысь
января
Вязов
Коньыву
асдуныз
##губи
давай
нимтулыз
мкш
Ломоносов
Пепел
АФУН
Галямшин
Чебоксары
якшур
участоке
Поскрё
VK
Бесс
Баку
Варк
Вят
Востэм
Высо
Гыль
Даш
Драг
Йор
Кань
Плен
Суй
Темп
Фев
Чин
Штыкова
Югра
бетон
дер
дар
даллаш
коз
мой
ом
чуж
##нере
##танысь
##лач
##гали
##ӵӵе
##11
##ss
##ылонъёс
куя
купеч
##оликъёс
шуонъёс
вылзэ
##сьёсыз
вуод
Тая
Таослэн
пырс
ёросъёсаз
##истъёслэсь
каронъёс
консер
##кетэ
пукисьёслэн
лэсьтӥсьёслэн
нуналъёссы
нуналэнызы
дунэн
малпалоз
адӟиллям
дышетскыкумы
синмысь
учкыло
выжык
ӝутӥмы
кӧж
Мигра
##ыльыр
эскериськыны
лыктӥм
коньдонмы
кошкемзы
##дӥськы
кенешоно
югытэз
шудылӥз
##сязы
выремез
пумитъяське
вылэмзэ
спик
автош
нуиськом
кырӟанлэсь
артистэ
##опись
##ициез
крезьгурчиослэн
ӵектӥсьёс
114
вамыштӥм
картина
дурыныз
студентэз
парен
парикмах
шутэтсконъя
республикае
куаръёсты
азьланьтэмын
##ӥсьёслэн
кузёлы
вордӥськемез
##ациын
потытозь
142
пунэт
136
138
Карел
потэмзэ
партиз
Ваньмызлэн
возьматск
сётъям
даурзэ
ӝожтӥськыса
сэрегзэ
вурыс
вуроно
мӧзми
ческытсэ
сётомы
сэрттэ
Шундыпуксён
кышкась
июлёзь
басьтонэз
275
пурӟ
гидэз
медальёсыз
ӧтчамез
тубатъёс
Семьяязы
ӧсъёссэс
экзаменэ
Йыры
пересьмы
литературалэсь
кутонэ
уськытон
йылэтон
кичӧлтэмзыя
Мылкыдэз
статьяяз
Секытгес
##овоын
юалляськиз
милиц
басьтӥськимы
тэтчан
сётско
тэре
кыльымтэ
анаелэсь
юрттэменыз
висъянэз
нылмуртлы
##ишева
Арняяз
сапеген
ултӥя
индустри
Францие
Суредаз
Павлова
ёзэсъёслэн
сюдонлы
Демент
Концертэ
##ющий
витетӥзэ
донгиз
##поним
отделение
войналэн
султытӥз
Филимон
пуньыен
дядяе
йырвиз
Быгатэ
букваос
модельёс
духовой
лабораториын
картэлэн
Интерфакс
##зянова
пуктылоно
лицейысь
экология
посёлоке
Афганистанысь
кыллюкамъёс
Самараысь
Кушкет
огвыллемесь
изьвер
ветеринарияя
Никифоров
моногород
Касаткина
Митрофанова
Лесная
ёзвиос
усьтиськиз
Лапт
дефицит
управляющий
Коротай
Резен
йырсазьзэ
допинг
быдӟалаезъя
Шабер
Просто
адзытон
Маскара
гармонь
фонограмма
СХПК
Поварницын
репетиция
Кӧшкемыт
экспонатъёс
ПУРГА
Трефилова
Udm
Вала
Ган
Гаф
Зуль
Каш
Кӧр
Мой
Тамында
ШАР
ЮН
бис
бран
доза
коб
касс
ран
саб
Ӵебер
##пил
##врач
##далазэ
##иезлы
##иальной
##тёр
##тылӥллям
##летэз
##rg
##мм
##мир
##ях
##йы
##буз
##юзэн
ужалляз
араны
##отряд
шуим
##наго
##касов
##итетэ
##омбыл
вылтыр
инсульт
сюкась
##икын
##икъёсын
##исезлы
муэ
##ереп
карлэсь
гуртады
кулэмысь
пукылӥ
пуктӥсьёс
лыдъяськыны
лыдъяськылӥз
##авто
Куюк
##ебра
эшелэн
радысь
радъялоз
адӟылэм
кырмиз
уксус
быдэсъяськемез
быремез
быронлэсь
пӧртэмгес
ӝутонъя
ваисько
##ваен
##аоссэс
семьяенызы
Марысь
Маркова
Валче
Откр
кысконэн
Ужзэс
ужпумъёссы
кылдыты
Мынон
Арки
вази
вайыло
учыръёслы
##епрод
пусйисько
Гуртаз
визьман
Туэлы
валэктозы
ортчытъяз
возьматизы
конкурсазы
Став
Тодӥ
Тодӥськом
командае
командаосты
ньылӥз
шумпотӥськомы
предприятиен
куаръёсыз
клубъёсы
серемез
уждунлэсь
азинсконэз
176
берлолы
##ницкий
пушкес
сяськаен
кылзӥсь
Ивановналэн
сётизы
люкетын
люкетсы
дауръем
##манах
Курадӟ
бакчаез
Дунтэм
азьпалаз
гожтэтъёсты
вурӟ
кулоз
Шундыӝужан
наукаез
Котьмар
гыро
туспуктэмъёсыз
шуккиськ
азбарысь
табыр
Семьяе
Шишк
ӵектосъёсъя
куроез
вожвылъяськонъёсын
усьтонэз
гурезьёсы
геройлыко
Киргиз
технологиен
ымныро
бушам
вакчигес
дурбасьтыса
тодосчилы
феврал
Сьӧразы
майтал
дугдоз
сузяно
профессоръёс
Пока
толшорозь
аналит
лякизы
##мостэм
костю
кабинетэ
поттылыны
организатор
Загребина
лушка
Уйпалан
выйыны
850
##изациен
огеныд
распор
пайдазы
отделын
лушкаськись
экскурс
Кунгожсьӧр
туганэз
бызьылӥсьёслэн
Ходырева
тунсыкъяськисько
##ущёв
властьлы
августозь
Редакция
язычник
Григорьевых
Больш
маскарчиос
сборноез
Кечолысь
классикаез
лемтэйёс
Сӥзисько
мастерскойёс
сьоры
Баян
сюсьтылъёс
камерной
бускеле
воштисез
темаосъя
элит
логотип
Бельг
Чебеляй
простран
тюрьмае
##ace
пызен
глазовъёс
инвисъёс
кемаласен
Нечкино
Универсиад
вӧсян
Пероггуртысь
интернатэ
клиника
Якут
Красноярск
переводчик
документэз
дымбыр
Вологда
князь
экземплярен
Бутолин
туберкулёзэн
Брянск
ЭЛЬКУНЫСЬ
Евросоюз
Минута
полуфинал
Кардапольцев
##алуйста
Эрмитаж
am
Бок
Бук
ВДН
Го
Гам
Греб
Дзя
Жаг
Кылӥськиз
Лер
Намер
Опар
Пизэ
Сус
Сазь
Юрм
веч
кек
мас
миров
нель
саз
ход
ӝын
ӟамыр
ӵыды
##пект
##слам
##нюк
##эфф
##ee
##мож
##шиналэн
##яга
##час
##чай
##чабей
##щина
##ИХ
##ode
##tm
##ћськ
##ерб
##инспек
сомын
шуылоз
##иськисько
тӥясь
иностран
вуонъёс
##иялэн
##тӥськисьёс
##исезлэн
##испансер
каръёсы
гуртъёслы
басьязы
##яськод
##лыкын
##идзе
точка
лэсьтымтэ
кутскид
кутскыкум
прям
висъяса
пиды
быдэстӥсь
нырзэ
пусъёсты
сямыныз
вошъя
узбек
вераськеме
сиы
ваём
мари
##моб
кенешемын
Ужзы
учырен
сиёнзэс
возьматӥм
кылбуре
кылбураз
витам
пыдаз
книгаоссы
биограф
вылӥысь
Музы
амалъёсыз
ёзысь
кужымдэ
Кинэн
##ушан
центренызы
картаен
дуръёссэ
##дунне
лэзёз
скалъёслэсь
администр
азьланьтон
узыри
интыосмы
##ацилы
акроб
спортсменлы
147
сценка
сутыны
котькызьы
султоз
праздникъёсын
сӥзьыны
Анаймы
почт
тӥрен
улэммы
куинетӥосыз
дыртӥсь
шукы
бакчаязы
курадӟиз
юнматоз
бамъёсаз
Василиса
бурдъяське
бурдъяло
бурдъяськем
##юзикл
вормонъёсы
емышъёссэ
киоссы
ушъязы
киужъёсынызы
сӥльзэ
##ьянович
пыкыло
Бӧдьялась
йыгаськиз
войнаез
арбериослы
Вормонэн
технологияя
группазы
ялонэз
мозмытӥзы
этажысь
вуылыкум
1951
1927
юалляськонъёс
промышленностез
лёгаса
бергатыса
банкъёсын
висъямы
кунянъёс
стадионэз
мынэмзэ
ёросъёсысьтыз
чырса
Корепановлэн
тэрк
сюлэмшугъяськон
Рябов
Федерациын
камсьӧр
поттылэ
дэй
Историез
эшъяським
Гарипов
куртчон
пелязы
Радик
оскымонэсь
лябӟем
Дышетӥсьмы
Улосэз
демон
Аркаим
Палэнысен
кутсам
таракан
Кышкыттэм
Биктимир
спортзалэз
Самсоновлэн
Пияшлэн
висъетъёс
Театрын
текстъёсты
Район
Кисел
колонна
антиби
бесерманъёслэн
шайвылын
чукын
чукна
вормытэк
Пугачёв
суйп
язык
изданиосты
радъяськыло
изьытэк
библиотекарьёс
Библия
сайкатэ
приёмнояз
Социалистической
Мишалэн
презентациос
пужъятск
кичабонъёс
##НАШ
Нуриахмет
шодскымон
замок
воштӥсьсэ
Тимирязев
АЛНАШ
Внучка
Ринат
дедуш
Варяшысь
Гулё
выльдӥм
лыдмет
благоустройствоя
властез
Книгалэн
кавалер
кластер
крепость
Алексий
изоля
Грозный
СНГ
ятвыл
распоряж
ВДНХ
ch
Диал
Иаков
Моз
Маня
Рейн
Теб
УКС
Фад
Ыль
выс
дво
деб
итӥсько
тов
унозэ
хоб
халатэн
ёзь
ӟиз
Ӵект
##опровод
##разд
##сыз
##нано
##лей
##ram
##ъён
##УС
##КАН
##16
##ДА
##рто
##ртыса
##анча
##ине
##лыш
##скозы
ужад
валтоз
валасьёс
кылод
##кап
татышлы
##испол
удмуртском
тырисько
вордыса
нунылы
##ьяно
монтэк
нуналъёссэс
лыдъясь
нимзы
приг
гожъёс
гожтӥсь
гожъяськыса
адӟылэме
кырмыш
нырез
буяны
синмаз
мылкыдъёссы
ӟече
быгатӥды
##альное
быремен
##лят
учкылыны
сюресъёслы
вераськиськоды
тыршылӥз
йыркоб
кораса
##торъёс
##егод
шаердэ
шаермыя
марлэсь
кошкисьёс
умойёсыз
кенешысь
вырй
Арина
герд
справо
учыръёслэн
йӧлыз
пӧрась
пумиськонъёсты
капремонт
Алиса
шуна
пусйим
ворми
верамъёссэ
сюлмаськонъёсын
сюлмаськеменыз
кылбуръёсаз
вождэ
книгаослы
вазиськонэн
пыӵалэн
толзэ
ӧтисько
валэктэмъя
луэмды
ортчытъям
палэнскиз
атайды
крем
вӧлак
бертылэ
Корота
мактал
вамыштоз
шумпотысал
парказы
шутэтсконэз
тылъёсын
пуштыр
театръя
дышетӥсьёссы
чидаса
бичай
бӧрдӥсько
174
вунэтӥськем
133
кусыпъёсыз
Ярмар
нюръяськисьёс
нюръяськозы
чылкытгес
бакал
окмо
кышнолэн
паймытоз
тэтэ
пытсэ
сётод
анаеным
редакциысь
берытскон
Коли
веранъёсын
##измез
##измлы
лэсьтэмзы
вужерез
килограм
Дунтэк
директоре
кезьытэн
дасянэн
вераськонзэ
сэреге
тӥрлыклы
##люч
сылон
сэрттыса
ыстӥ
ӝужаз
ульчаез
Ильд
фондъёс
Ижевская
Кырсь
пыкылыны
кырӟанъёсыныз
Дорвыжы
кинолы
кышказ
Широк
бугырскиз
ӵектосэ
темаосты
Йырыз
укноетӥ
пертчо
Сизь
Бречаловлэн
шокчиз
Йӧно
ветлэммы
дӥськутлы
нуллыса
Адӟисько
Орк
Орл
вуылыку
басыл
шырыт
борддорез
борддоръёсыз
базаез
отделэ
тодытыса
визьноданы
Инвис
ворттылэм
Сюлэмам
лӧптэм
Асьсэлы
кизёнэз
бервылъёссэ
ослэн
книгаме
гожъямы
куалекты
поттыло
шокаса
киямы
##фирма
бугро
агаезлэн
Радуга
Лыкты
вӧлмытонэн
делегациез
филармоние
тушмонлэсь
архивысьтыз
Хозяйствоос
утчасьёс
сумкаос
Идна
маска
лушкан
январьлы
банка
банке
синмез
путеш
##ЕНТ
Окилэсь
Глухова
сисьмыны
Тимофеев
съездзы
##ущий
внукез
внукъёсыз
##МИГУ
букваосты
Бигеръёс
Министръёслэн
конструкторлэн
лулӟиз
Пилат
туганъёс
Электро
егитысен
курдаса
микрорайон
Ондӥ
Ондр
июньысен
Николаевналэн
Приб
сузьет
шальтыр
Республикамы
против
Фарит
Таллинын
Мемие
КИВАЛТИСЕЗ
мечеть
лыдъямъя
принц
могӟет
инбамын
информационной
сипыртӥз
##ртэш
волейболъя
Земский
Селивёрст
Агафонова
Наркотикъёсты
Тутаева
САМИГУ
асьсэзыс
Сапожников
зӥр
телепередача
персонаж
Софронов
токарь
больничной
Беларусь
осеменатор
оргкомитет
Гитлер
люцерна
диаспор
трудодень
wid
Асэн
Бӧляк
Блог
Ит
ХХ
Хокке
бард
веб
жюр
кидэ
оке
пла
рюк
штат
шиф
Ӟич
ӟар
##при
##еысь
##тиське
##ьёв
##бель
##бытэн
##ӟали
##ip
##50
##тэен
##етонъёс
##наб
##итер
##асыр
кебит
##омар
вылезлы
##айд
##икъёслы
##чилы
ваньдэс
попу
сюрсэн
пукисьёсты
лэсьтӥд
нимасько
улонды
##ствоын
адӟонэ
кырсез
компот
быдэсме
бут
учкид
манетъем
пыриськом
огазеялоз
сюресъёссы
вераськылӥз
вераськоды
сииськом
##умен
коньдоно
йырлэн
коран
экипаж
возес
Валтон
Ужмы
сурен
вырим
автов
##епон
возьматэмзы
котьмалэсь
Ижкарез
Ижкарлэсь
##ялуд
##ысалыд
газетъёслэн
хозяйствомы
хозяйствоосы
визьмаз
ожъёсын
кырӟанэныз
герӟасько
##маркет
ӧтёзы
малпанды
Сюй
Сюга
палэнтыса
палэнтоно
128
Люция
##ительёслэн
герӟаське
макт
макар
туалаез
кышномуртъёслэн
тодматсконъёс
картэным
куштон
кузёосыз
Бадӟымгес
Вуи
конкурсаз
Берлояз
воинской
зарез
ватсам
ватсало
чотаны
Мукетъят
люкетъёсты
Анайзы
пӧрмытоз
паймиськод
дасялэ
Шаермы
эшъёссылы
вужесь
Данакез
Соловьёвен
пыжыса
сэрегъёсын
шудоен
Синуч
вурон
кулонэз
пиосмуртэн
##ухин
Пусошур
вормонъёсыныз
люкетэзъя
пуроме
чорыгъёсты
пыкылӥз
Дышетскиз
Полом
Вылтус
йыгаськ
воштӥськем
азбаръёсын
##ъяськемысь
пуксисько
кабина
кубы
керттӥськон
дэремъёсты
тазаесь
Кирпич
келяськом
будэтонэн
Учкисьёсты
губиен
Катанчи
вынзэ
шумпотонзы
ошмесо
покчиарняе
салфет
маймыл
куасьмыны
писательёслы
кузьмаса
базаын
##ражн
Умойтэм
сузям
сузяса
340
Лэсьтэм
Ивановичлэн
патент
Ӵошатсконъёсы
Сюмсиын
Воткинске
кареммы
песянайёсмы
семинаре
куронзэс
грамотаосыз
кечыр
пьесазэ
предметъёс
Захарова
Сибыр
Книгаос
ярдурын
площадьысь
370
портр
результ
фотос
интылэсь
Така
басьтизы
сменае
декан
Нылашлэн
продукцизэс
участокын
синъёсыд
Эру
быдӟалазэс
тэльын
Бодров
Капчиен
жюрилэн
Машинаен
торф
съездэз
съездазы
чошатыса
сюжетэз
прививкаос
Лукин
нацпроектъя
Ветеринар
Доктор
удобрениос
Казахстанын
юнмалоз
Юанъёслы
чырмытгес
гочатэ
Панченко
Субсид
вокзалын
Пасха
палатаын
КИВАЛТӤСЕЗ
Ерпеч
поэма
репетициосы
коридорын
табанез
Солдатъёс
Кылдытэмын
скорой
Шакиров
Искра
Немецъёс
Булдакова
визнан
Российской
землячество
январёзь
Челябинскысь
астроном
шляпа
##ews
Карсовай
фарисейёс
Эстрада
ВАХ
дуртӥ
ОБЖ
##ИНИСТР
ИЖКАРЫСЬ
электромеханикая
норматив
Арам
Абашев
Вост
Венер
Госп
ДЭ
Даже
КО
Меж
Соз
Стер
ТВ
Фам
Хлеб
Чар
Чул
Яшина
жок
пидж
фас
шир
Ӟаны
##сам
##ытэм
##мал
##гыз
##чёв
##юл
##ДЫ
##js
##сьӧрысь
##ёсъя
##ези
##тыртэм
##атъёсын
##арен
##етдинов
##наса
##екей
вылти
##ноуб
улӥськы
##лика
вуисьёс
вуылэмын
##ияысь
##ъяськиллям
##евоысь
быдтэмез
интыяд
басьтӥсьёслы
насто
##янский
##цип
поттӥсьёслэн
пуктом
лыдъялозы
гожтӥськы
эшме
мукетъят
веттан
пиц
пиналысен
выжозы
сюресъёсын
ӝутӥ
секс
##утдинова
шаеръёсы
##учин
Мардан
коньдонтэк
Тукай
йылпумъяськон
анайёслэн
улосъёслэсь
вылынгес
кужм
##остан
сураське
люкыса
йӧлэн
##объедин
возьматэмез
пумиськонъёсын
нуиллям
Гуртъёсы
Алаш
сюлмаськемзэс
кылбурен
вождэс
вазиськоз
ӵошатскыса
ӵошатскозы
артистэн
Нылъёслы
Люм
Улӥсько
вӧлмыт
бертылӥз
машинаысь
ужъёсазы
герӟаськиз
командамы
кариськиллям
##джоник
вамышез
вуно
иворлы
куарая
вордӥськон
заводъёсы
изем
146
косы
косонэз
улосвылъёслэн
азинскы
167
168
Карпов
султӥсько
султозы
бырйимы
бырйиды
добр
ньыльлы
огшорыесь
атайёсмы
институтэн
Проектэз
Шудья
Шудком
Камашев
Экскур
Анаен
чорыга
вуре
сылозы
пиосмуртэ
Кузёез
ӝужало
коркалэсь
шоркармы
семьяослэсь
культурамы
пыкиське
пыкъет
Пумаз
модае
##енька
Иисуслэн
вандылоно
кисыез
водка
бергасько
Юнма
бушесь
буби
Орджоник
Турцие
Дарина
липетъёс
выльдӥськоз
мозмытӥз
сузэрзэ
куасьмиз
пилиськем
филологи
агайёс
Грязев
хоре
Сьӧлт
Таиныз
чиганъёс
йӧногес
Иворез
республикамылы
буйгатӥзы
пособиез
##ant
пелям
Суредась
дугдытӥз
Ньыльдон
Архит
Паймытӥзы
прокурорлэн
огкадьгес
аппаратъёс
юбилееныз
460
лушкаськисьёс
утялтонэ
Экономикаез
автономия
висъяськомы
сисьмемын
гожтӥськисьёс
Учаысь
Уждунэз
Тупаса
символ
президентлэн
Починка
Сунд
комсомолец
фирмаос
Шоркарысь
ожгарчиослы
##und
поэзиез
Сётэм
Англиын
Египетысь
слава
Мансийскысь
пужыятск
дыдыкъёс
Оптим
Ӧнерчиослэн
куриськонъёссэс
Кавказын
[...]
